{"vocab": {"success</w>": 0, "believed</w>": 1, "impatiently</w>": 2, "prospect</w>": 3, "rode</w>": 4, "pens</w>": 5, "offence</w>": 6, "discovered</w>": 7, "sisters</w>": 8, "frivolous</w>": 9, "ally_</w>": 10, "here": 11, "plenti": 12, "consoled</w>": 13, "cum": 14, "defended</w>": 15, "kindly</w>": 16, "note</w>": 17, "capable</w>": 18, "He</w>": 19, "ashed</w>": 20, "proposal</w>": 21, "ble": 22, "stability</w>": 23, "amaz": 24, "consult</w>": 25, "generations</w>": 26, "intolerable</w>": 27, "sly</w>": 28, "honours</w>": 29, "secondly</w>": 30, "education</w>": 31, "months</w>": 32, "encouraged</w>": 33, "tion": 34, "striking</w>": 35, "repli": 36, "portion</w>": 37, "inconsisten": 38, "yâ</w>": 39, "soon_</w>": 40, "arise</w>": 41, "tenour</w>": 42, "sever": 43, "amiss</w>": 44, "When</w>": 45, "revol": 46, "showed</w>": 47, "revival</w>": 48, "placing</w>": 49, "outrun</w>": 50, "tens</w>": 51, "unimportant</w>": 52, "no</w>": 53, "ments</w>": 54, "given</w>": 55, "aurel</w>": 56, "acked</w>": 57, "device</w>": 58, "leg": 59, "Gener": 60, "resent": 61, "lost</w>": 62, "passages</w>": 63, "stâ</w>": 64, "dressed</w>": 65, "daughters</w>": 66, "ashes</w>": 67, "overtook</w>": 68, "ement</w>": 69, "rin": 70, "sl": 71, "rent</w>": 72, "dance</w>": 73, "useful</w>": 74, "[</w>": 75, "lure</w>": 76, "uneasiness</w>": 77, "one</w>": 78, "accident</w>": 79, "restoration</w>": 80, "uncomfortable</w>": 81, "scruple</w>": 82, "visit</w>": 83, "cap</w>": 84, "survivor</w>": 85, "ep</w>": 86, "ance</w>": 87, "exclaimed</w>": 88, "interested</w>": 89, "extent</w>": 90, "comprehended</w>": 91, "citly</w>": 92, "impul": 93, "recalled</w>": 94, "eni": 95, "wisest</w>": 96, "der": 97, "pretation</w>": 98, "x</w>": 99, "events</w>": 100, "mped</w>": 101, "citing</w>": 102, "m": 103, "soli": 104, "denomin": 105, "wearied</w>": 106, "ces</w>": 107, "extravagance</w>": 108, "seldom</w>": 109, "stro": 110, "rother</w>": 111, "_we_</w>": 112, "thankful</w>": 113, "requester</w>": 114, "restoring</w>": 115, "elo": 116, "Other</w>": 117, "sti": 118, "ton</w>": 119, "Nearly</w>": 120, "blinded</w>": 121, "oneâ</w>": 122, "side</w>": 123, "positive</w>": 124, "sighed</w>": 125, "delightful</w>": 126, "fashion</w>": 127, "veneration</w>": 128, "And</w>": 129, "remarked</w>": 130, "comforted</w>": 131, "ight</w>": 132, "disclosed</w>": 133, "fellows</w>": 134, "honestly</w>": 135, "impossible</w>": 136, "dest</w>": 137, "deemed</w>": 138, "_him_</w>": 139, "impulse</w>": 140, "venture</w>": 141, "anxious</w>": 142, "smiles</w>": 143, "whim": 144, "av": 145, "whispering</w>": 146, "interruption</w>": 147, "repinings</w>": 148, "follow</w>": 149, "fishing</w>": 150, "nearly</w>": 151, "vex": 152, "gar": 153, "pl": 154, "ore</w>": 155, "introduce</w>": 156, "ach": 157, "Charles</w>": 158, "augh</w>": 159, "seen</w>": 160, "exceeded</w>": 161, "profession</w>": 162, "handsomest</w>": 163, "acted</w>": 164, "cit</w>": 165, "lock</w>": 166, "wil": 167, "Perhaps</w>": 168, "instan": 169, "XX</w>": 170, "beauty</w>": 171, "weeks</w>": 172, "Gre": 173, "saying</w>": 174, "paling</w>": 175, "save</w>": 176, "Wickham</w>": 177, "reprehensible</w>": 178, "wants</w>": 179, "atre</w>": 180, "stituted</w>": 181, "seness</w>": 182, "suming</w>": 183, "Catherine</w>": 184, "laughing</w>": 185, "shy</w>": 186, "upon</w>": 187, "shall": 188, "_she_</w>": 189, "proposals</w>": 190, "Reflection</w>": 191, "mor": 192, "searching</w>": 193, "puzz": 194, "declare</w>": 195, "ce": 196, "fers</w>": 197, "expressive</w>": 198, "deliber": 199, "paining</w>": 200, "escaping</w>": 201, "groun": 202, "house": 203, "properly</w>": 204, "guardianship</w>": 205, "explore</w>": 206, "imagined</w>": 207, "cards</w>": 208, "yi": 209, "easiness</w>": 210, "due</w>": 211, "collec": 212, "flirt</w>": 213, "simpers</w>": 214, "eye": 215, "thers</w>": 216, "ire": 217, "security</w>": 218, "Wi": 219, "malice</w>": 220, "Bourgh</w>": 221, "improved</w>": 222, "ste": 223, "ture": 224, "every": 225, "succe": 226, "fear": 227, "benevolence</w>": 228, "meat</w>": 229, "discre": 230, "detested</w>": 231, "incessant</w>": 232, "seclu": 233, "honour</w>": 234, "engaging</w>": 235, "praised</w>": 236, "intelligible</w>": 237, "resolve</w>": 238, "overlooked</w>": 239, "aces</w>": 240, "Between</w>": 241, "addition</w>": 242, "el</w>": 243, "resource</w>": 244, "agistrate</w>": 245, "violent</w>": 246, "punctually</w>": 247, "tone</w>": 248, "th": 249, "agreeing</w>": 250, "positions</w>": 251, "briefly</w>": 252, "VI</w>": 253, "atiri": 254, "wished</w>": 255, "Everything</w>": 256, "where</w>": 257, "blin": 258, "play</w>": 259, "paint</w>": 260, "matrimony</w>": 261, "dislike</w>": 262, "volu": 263, "principal</w>": 264, "trusting</w>": 265, "satisfactions</w>": 266, "noisy</w>": 267, "ayment</w>": 268, "hi": 269, "objection</w>": 270, "Letters</w>": 271, "censured</w>": 272, "accompanied</w>": 273, "atonement</w>": 274, "disgracing</w>": 275, "accidental</w>": 276, "geli": 277, "shel": 278, "sons</w>": 279, "laugh</w>": 280, "clear</w>": 281, "voluntary</w>": 282, "imperfection</w>": 283, "fair</w>": 284, "accuse</w>": 285, "treat</w>": 286, "ken</w>": 287, "wit</w>": 288, "vently</w>": 289, "inquiries</w>": 290, "sincerely</w>": 291, "safely</w>": 292, "Compliments</w>": 293, "ford</w>": 294, "lodgings</w>": 295, "compromised</w>": 296, "inducements</w>": 297, "veracity</w>": 298, "resentful</w>": 299, "prosperous</w>": 300, "congratulated</w>": 301, "away</w>": 302, "fle": 303, "be</w>": 304, "accosted</w>": 305, "objections</w>": 306, "smile": 307, "long</w>": 308, "but</w>": 309, "G": 310, "answering</w>": 311, "unconsciously</w>": 312, "keener</w>": 313, "disobliging</w>": 314, "suppressed</w>": 315, "afterwards</w>": 316, "fashi": 317, "almost</w>": 318, "patroness</w>": 319, "mping</w>": 320, "pre</w>": 321, "frequently</w>": 322, "iving</w>": 323, "mis</w>": 324, "pest</w>": 325, "quieted</w>": 326, "netting</w>": 327, "ceased</w>": 328, "dwelling</w>": 329, "variety</w>": 330, "give</w>": 331, "offered</w>": 332, "accused</w>": 333, "unex": 334, "coincided</w>": 335, "offer</w>": 336, "visiting</w>": 337, "greatly</w>": 338, "displease</w>": 339, "citations</w>": 340, "94</w>": 341, "practised</w>": 342, "schoo": 343, "XXI</w>": 344, "corps</w>": 345, "ed</w>": 346, "writes</w>": 347, "VII</w>": 348, "duped</w>": 349, "officers</w>": 350, "un</w>": 351, "complacency</w>": 352, "deserts</w>": 353, "gloomy</w>": 354, "disdained</w>": 355, "precious</w>": 356, "dissem": 357, "displaying</w>": 358, "bed</w>": 359, "mixture</w>": 360, "_such_</w>": 361, "aming</w>": 362, "audience</w>": 363, "range</w>": 364, "posti": 365, "omen</w>": 366, "syll": 367, "Luc": 368, "mendable</w>": 369, "familiar</w>": 370, "through</w>": 371, "X": 372, "wonders</w>": 373, "parti": 374, "Exce": 375, "at</w>": 376, "y": 377, "are": 378, "negative</w>": 379, "In</w>": 380, "ligh": 381, "ungenerous</w>": 382, "_should_</w>": 383, "arri": 384, "farewell</w>": 385, "debt</w>": 386, "meditating</w>": 387, "unexpectedly</w>": 388, "principles</w>": 389, "apt</w>": 390, "advising</w>": 391, "master": 392, "stream</w>": 393, "dare</w>": 394, "My</w>": 395, "descending</w>": 396, "dignified</w>": 397, "ssions</w>": 398, "nu": 399, "oppor": 400, "junc": 401, "anticipating</w>": 402, "bour": 403, ".</w>": 404, "testifying</w>": 405, "tim</w>": 406, "pin</w>": 407, "peace</w>": 408, "pointedly</w>": 409, "rate</w>": 410, "detached</w>": 411, "distressed</w>": 412, "others</w>": 413, "quarrel</w>": 414, "sacrifice</w>": 415, "Wednesday</w>": 416, "houn": 417, "vill": 418, "except</w>": 419, "That</w>": 420, "Nor</w>": 421, "prudent</w>": 422, "compare</w>": 423, "consign</w>": 424, "burst</w>": 425, "sanction</w>": 426, "acefully</w>": 427, "happily</w>": 428, "repul": 429, "woody</w>": 430, "scores</w>": 431, "athiz": 432, "value</w>": 433, "prevents</w>": 434, "names</w>": 435, "arrangement</w>": 436, "</w>": 437, "sses</w>": 438, "widow</w>": 439, "comparative</w>": 440, "cle</w>": 441, "sco": 442, "bestowed</w>": 443, "ain": 444, "Boo": 445, "athed</w>": 446, "probable</w>": 447, "declaration</w>": 448, "divi": 449, "blemished</w>": 450, "became</w>": 451, "local</w>": 452, "so</w>": 453, "disdain</w>": 454, "moral</w>": 455, "rooms</w>": 456, "obligation</w>": 457, "yours</w>": 458, "each</w>": 459, "h</w>": 460, "curiosity</w>": 461, "inconvenience</w>": 462, "ss_</w>": 463, "acquaint</w>": 464, "fastidious</w>": 465, "seduction</w>": 466, "dread</w>": 467, "insensible</w>": 468, "Carter</w>": 469, "watch": 470, "feli": 471, "privilege</w>": 472, "merely</w>": 473, "opposed</w>": 474, "provide</w>": 475, "yes</w>": 476, "stopped</w>": 477, "sore</w>": 478, "rushed</w>": 479, "walked</w>": 480, "enderly</w>": 481, "_appearance_</w>": 482, "agitation</w>": 483, "disagreeable</w>": 484, "fer</w>": 485, "After</w>": 486, "tell</w>": 487, "Mamma</w>": 488, "loud</w>": 489, "contains</w>": 490, "remind</w>": 491, "yielding</w>": 492, "plainly</w>": 493, "Can</w>": 494, "z": 495, "friendless</w>": 496, "open</w>": 497, "Much</w>": 498, "recollecting</w>": 499, "impor": 500, "selfish</w>": 501, "sport</w>": 502, "fish": 503, "lawn</w>": 504, "confession</w>": 505, "conditions</w>": 506, "apologizing</w>": 507, "assurances</w>": 508, "furnish</w>": 509, "monthâ</w>": 510, "rapid</w>": 511, "ps</w>": 512, "publish</w>": 513, "smilingly</w>": 514, "cheeks</w>": 515, "likelihood</w>": 516, "displeased</w>": 517, "Meryton</w>": 518, "dishonest</w>": 519, "pecuni": 520, "nearer</w>": 521, "stin": 522, "next</w>": 523, "misfortunes</w>": 524, "genteel</w>": 525, "restrain</w>": 526, "blings</w>": 527, "design</w>": 528, "regulate</w>": 529, "unconcerned</w>": 530, "fici": 531, "shanâ</w>": 532, "Have</w>": 533, "views</w>": 534, "representing</w>": 535, "action</w>": 536, "prefer</w>": 537, "Choose</w>": 538, "particular</w>": 539, "presented</w>": 540, "effusions</w>": 541, "sonage</w>": 542, "gestion</w>": 543, "alone</w>": 544, "proce": 545, "warmest</w>": 546, "vanish</w>": 547, "thirdly</w>": 548, "lev": 549, "sts</w>": 550, "hering</w>": 551, "must</w>": 552, "laying</w>": 553, "vacant</w>": 554, "broo": 555, "becoming</w>": 556, "An": 557, "mingham</w>": 558, "study</w>": 559, "conquest</w>": 560, "during</w>": 561, "suitableness</w>": 562, "admitting</w>": 563, "sist</w>": 564, "uncleâ</w>": 565, "Captain</w>": 566, "As</w>": 567, "direction</w>": 568, "overcome</w>": 569, "_my_</w>": 570, "playing</w>": 571, "bows</w>": 572, "XI</w>": 573, "tes</w>": 574, "delivered</w>": 575, "fail</w>": 576, "drooping</w>": 577, "faulty</w>": 578, "sat</w>": 579, "welcome</w>": 580, "merry</w>": 581, "ping</w>": 582, "gh": 583, "turns</w>": 584, "voi": 585, "absolute</w>": 586, "studies</w>": 587, "tax</w>": 588, "absurd</w>": 589, "o</w>": 590, "T</w>": 591, "likeness</w>": 592, "ount</w>": 593, "conce": 594, "ssistance</w>": 595, "monly</w>": 596, "irritation</w>": 597, "exerted</w>": 598, "chosen</w>": 599, "malicious</w>": 600, "sple": 601, "seded</w>": 602, "silent</w>": 603, "attending</w>": 604, "evident</w>": 605, "ay</w>": 606, "shut</w>": 607, "below</w>": 608, "trial</w>": 609, "kin": 610, "known</w>": 611, "hills</w>": 612, "income</w>": 613, "turn</w>": 614, "anything</w>": 615, "usual</w>": 616, "confident</w>": 617, "glori": 618, "twelvemonth</w>": 619, "ablution</w>": 620, "testified</w>": 621, "doubled</w>": 622, "ses</w>": 623, "amuse</w>": 624, "suggested</w>": 625, "weakest</w>": 626, "limits</w>": 627, "fortnight</w>": 628, "employed</w>": 629, "setting</w>": 630, "vex</w>": 631, "fere</w>": 632, "lou": 633, "resigned</w>": 634, "wel": 635, "agitations</w>": 636, "improper</w>": 637, "stand</w>": 638, "visited</w>": 639, "sions</w>": 640, "afest</w>": 641, "whispered</w>": 642, "solemnity</w>": 643, "equ": 644, "evan": 645, "scrupulous</w>": 646, "needle": 647, "imprudence</w>": 648, "delicious</w>": 649, "solitude</w>": 650, "complying</w>": 651, "tim": 652, "despic": 653, "pull</w>": 654, "odâ</w>": 655, "enjoy</w>": 656, "cleri": 657, "highest</w>": 658, "F": 659, "determination</w>": 660, "sweetest</w>": 661, "engrossed</w>": 662, "missi": 663, "tings</w>": 664, "pity</w>": 665, "passions</w>": 666, "join</w>": 667, "celerity</w>": 668, "grounds</w>": 669, "fatu": 670, "alities</w>": 671, "ho": 672, "judging</w>": 673, "bled</w>": 674, "attended</w>": 675, "sum</w>": 676, "Clapham</w>": 677, "flight</w>": 678, "depended</w>": 679, "adly</w>": 680, "clou": 681, "obliging</w>": 682, "elegance</w>": 683, "dined</w>": 684, "free</w>": 685, "asleep</w>": 686, "divert</w>": 687, "pride</w>": 688, "infinitely</w>": 689, "Gracechurch</w>": 690, "sisterly</w>": 691, "condescen": 692, "advised</w>": 693, "ter</w>": 694, "tening</w>": 695, "lities</w>": 696, "propor": 697, "final</w>": 698, "sive</w>": 699, "satis": 700, "fixed</w>": 701, "assino</w>": 702, "stupid</w>": 703, "proclaim</w>": 704, "substance</w>": 705, "said</w>": 706, "provoke</w>": 707, "envy</w>": 708, "gentle</w>": 709, "professed</w>": 710, "various</w>": 711, "It</w>": 712, "need</w>": 713, "disgust</w>": 714, "quence</w>": 715, "edly</w>": 716, "go</w>": 717, "raising</w>": 718, "sides</w>": 719, "respectable</w>": 720, "busily</w>": 721, "petticoat</w>": 722, "tumult</w>": 723, "venting</w>": 724, "pe": 725, "argued</w>": 726, "day</w>": 727, "mously</w>": 728, "tonly</w>": 729, "aceful</w>": 730, "oods</w>": 731, "plays</w>": 732, "None</w>": 733, "pretty</w>": 734, "tons</w>": 735, "sudden</w>": 736, "injustice</w>": 737, "painter</w>": 738, "prospects</w>": 739, "soup</w>": 740, "ets</w>": 741, "energy</w>": 742, "abruptly</w>": 743, "find</w>": 744, "lar": 745, "gener": 746, "acy</w>": 747, "extended</w>": 748, "fat</w>": 749, "moment": 750, "ple": 751, "rites</w>": 752, "tedly</w>": 753, "asserting</w>": 754, "seated</w>": 755, "rejoiced</w>": 756, "Ã</w>": 757, "unassuming</w>": 758, "sought</w>": 759, "caring</w>": 760, "descent</w>": 761, "surv": 762, "inquired</w>": 763, "igh": 764, "ride</w>": 765, "fin": 766, "shopping</w>": 767, "incur</w>": 768, "dislikes</w>": 769, "gravely</w>": 770, "start</w>": 771, "performance</w>": 772, "leaving</w>": 773, "ations</w>": 774, "tallestâ</w>": 775, "finer</w>": 776, "XXXI</w>": 777, "improvement</w>": 778, "somely</w>": 779, "irksome</w>": 780, "Ten</w>": 781, "train</w>": 782, "timed</w>": 783, "friends</w>": 784, "contemp": 785, "Fitzwilliam</w>": 786, "tly</w>": 787, "d_</w>": 788, "K": 789, "gi": 790, "regardless</w>": 791, "riding</w>": 792, "str": 793, "doubtful</w>": 794, "under</w>": 795, "speci": 796, "oppressed</w>": 797, "ks</w>": 798, "_us_</w>": 799, "intelligent</w>": 800, "valley</w>": 801, "comers</w>": 802, "vely</w>": 803, "minds</w>": 804, "Of</w>": 805, "wo": 806, "valuable</w>": 807, "nephews</w>": 808, "eveningâ</w>": 809, "abomin": 810, "they</w>": 811, "Another</w>": 812, "approached</w>": 813, "asions</w>": 814, "turously</w>": 815, "spirit</w>": 816, "ait</w>": 817, "exercise</w>": 818, "Protested</w>": 819, "rescu": 820, "fac": 821, "usele": 822, "_they_</w>": 823, "broke</w>": 824, "ch_</w>": 825, "dour</w>": 826, "daring</w>": 827, "et</w>": 828, "presents</w>": 829, "grieved</w>": 830, "_there_</w>": 831, "ke_</w>": 832, "lane</w>": 833, "anxi": 834, "ately</w>": 835, "importance</w>": 836, "attacked</w>": 837, "parishi": 838, "dozen</w>": 839, "how</w>": 840, "giving</w>": 841, "language</w>": 842, "confi": 843, "rant</w>": 844, "decency</w>": 845, "gallant</w>": 846, "ads</w>": 847, "inform</w>": 848, "ld</w>": 849, "ens</w>": 850, "narrowest</w>": 851, "required</w>": 852, "intrigues</w>": 853, "Nay</w>": 854, "infamous</w>": 855, "incauti": 856, "accounts</w>": 857, "unhappy</w>": 858, "amp": 859, "necessarily</w>": 860, "observed</w>": 861, "my</w>": 862, "oâ</w>": 863, "accompany</w>": 864, "endeared</w>": 865, "ckedest</w>": 866, "hired</w>": 867, "IN": 868, "replying</w>": 869, "fication</w>": 870, "communication</w>": 871, "ritain</w>": 872, "Bourghâ</w>": 873, "constancy</w>": 874, "to": 875, "retains</w>": 876, "guide</w>": 877, "leave</w>": 878, "represent</w>": 879, "fetime</w>": 880, "bers</w>": 881, "exag": 882, "men</w>": 883, "coppice</w>": 884, "forgetting</w>": 885, "aligh": 886, "fuse</w>": 887, "less</w>": 888, "geti": 889, "she": 890, "unaffectedly</w>": 891, "solent</w>": 892, "addressed</w>": 893, "companions</w>": 894, "!</w>": 895, "an": 896, "proud</w>": 897, "foolish</w>": 898, "quality</w>": 899, "D": 900, "loudly</w>": 901, "distance</w>": 902, "While</w>": 903, "abhor": 904, "mortifying</w>": 905, "brothers</w>": 906, "duty</w>": 907, "parties</w>": 908, "barous</w>": 909, "guilt</w>": 910, "al": 911, "imposed</w>": 912, "_She_</w>": 913, "lodge</w>": 914, "lur": 915, "ridge</w>": 916, "short</w>": 917, "aseless</w>": 918, "RIGHT</w>": 919, "deceived</w>": 920, "disposed</w>": 921, "excellent</w>": 922, "bar": 923, "desert</w>": 924, "stly</w>": 925, "greatest</w>": 926, "anybody</w>": 927, "evil</w>": 928, "on": 929, "woman</w>": 930, "ended</w>": 931, "inventing</w>": 932, "daughterâ</w>": 933, "highly</w>": 934, "dissi": 935, "difference</w>": 936, "himself</w>": 937, "F</w>": 938, "expose</w>": 939, "olive</w>": 940, "remember</w>": 941, "ap</w>": 942, "arch</w>": 943, "led</w>": 944, "sir</w>": 945, "assist</w>": 946, "dingly</w>": 947, "execution</w>": 948, "aning</w>": 949, "shades</w>": 950, "som</w>": 951, "eloping</w>": 952, "dy</w>": 953, "hesitating</w>": 954, "ascended</w>": 955, "Darcyâ</w>": 956, "interference</w>": 957, "fellow</w>": 958, "pose</w>": 959, "parlour</w>": 960, "cautioning</w>": 961, "eliest</w>": 962, "quit</w>": 963, "approach</w>": 964, "comforts</w>": 965, "ampering</w>": 966, "ventured</w>": 967, "eleven</w>": 968, "lonel": 969, "received</w>": 970, "treated</w>": 971, "roused</w>": 972, "ate</w>": 973, "righ": 974, "afresh</w>": 975, "_Copyright</w>": 976, "alter": 977, "elope</w>": 978, "im</w>": 979, "earlier</w>": 980, "alty</w>": 981, "trem": 982, "senting</w>": 983, "settled</w>": 984, "conceit</w>": 985, "cases</w>": 986, "exer": 987, "nur": 988, "ass</w>": 989, "culation</w>": 990, "allusions</w>": 991, "peculi": 992, "vivacity</w>": 993, "_to": 994, "degre": 995, "many</w>": 996, "hard": 997, "qui": 998, "speak</w>": 999, "tiness</w>": 1000, "nearest</w>": 1001, "suspicion</w>": 1002, "opinion</w>": 1003, "V</w>": 1004, "revolt</w>": 1005, "vable</w>": 1006, "harm</w>": 1007, "exclaim</w>": 1008, "belong</w>": 1009, "kit": 1010, "invitation</w>": 1011, "thed</w>": 1012, "_your</w>": 1013, "group</w>": 1014, "assurance</w>": 1015, "enteredâ</w>": 1016, "preceding</w>": 1017, "increase</w>": 1018, "sy": 1019, "succeeded</w>": 1020, "rises</w>": 1021, "Illustration</w>": 1022, "achi": 1023, "effect</w>": 1024, "justify</w>": 1025, "inn</w>": 1026, "soms</w>": 1027, "stem</w>": 1028, "ainer</w>": 1029, "aped</w>": 1030, "ard</w>": 1031, "inconsistency</w>": 1032, "incredulous</w>": 1033, "matters</w>": 1034, "reel</w>": 1035, "endured</w>": 1036, "retirement</w>": 1037, "crow": 1038, "biting</w>": 1039, "</w>": 1040, "Pray</w>": 1041, "unforgiving</w>": 1042, "diffidence</w>": 1043, "Georgianaâ</w>": 1044, "expediti": 1045, "getting</w>": 1046, "har": 1047, "impli": 1048, "duche": 1049, "sources</w>": 1050, "impertinent</w>": 1051, "ri": 1052, "ruption</w>": 1053, "b</w>": 1054, "humble</w>": 1055, "Dear</w>": 1056, "spare</w>": 1057, "London</w>": 1058, "laughingly</w>": 1059, "Pardon</w>": 1060, "keeping</w>": 1061, "_two_</w>": 1062, "admirable</w>": 1063, "bride": 1064, "ements</w>": 1065, "substantial</w>": 1066, "cing</w>": 1067, "imparted</w>": 1068, "out_</w>": 1069, "affec": 1070, "what</w>": 1071, "Tell</w>": 1072, "hausted</w>": 1073, "continued</w>": 1074, "refused</w>": 1075, "youngest</w>": 1076, "stirs</w>": 1077, "intimately</w>": 1078, "temptation</w>": 1079, "pianoforte</w>": 1080, "manage</w>": 1081, "ways</w>": 1082, "flutterings</w>": 1083, "family_</w>": 1084, "pieces</w>": 1085, "ailing</w>": 1086, "useless</w>": 1087, "four": 1088, "pain": 1089, "purpose</w>": 1090, "services</w>": 1091, "forbidding</w>": 1092, "S": 1093, "fingering</w>": 1094, "anticipated</w>": 1095, "females</w>": 1096, "till</w>": 1097, "fai": 1098, "mortified</w>": 1099, "sharing</w>": 1100, "our</w>": 1101, "risk</w>": 1102, "Having</w>": 1103, "adopted</w>": 1104, "CHAR": 1105, "avoiding</w>": 1106, "exception</w>": 1107, "apparently</w>": 1108, "possess</w>": 1109, "edged</w>": 1110, "wonder</w>": 1111, "shoot</w>": 1112, "ence</w>": 1113, "masters</w>": 1114, "draughts</w>": 1115, "preci": 1116, "earnestness</w>": 1117, "examine</w>": 1118, "dur": 1119, "reli": 1120, "deserved</w>": 1121, "ables</w>": 1122, "Colonel</w>": 1123, "ady</w>": 1124, "hemence</w>": 1125, "ing": 1126, "decisions</w>": 1127, "reputation</w>": 1128, "©": 1129, "did</w>": 1130, "deserted</w>": 1131, "rou": 1132, "manners</w>": 1133, "awful</w>": 1134, "urely</w>": 1135, "geration</w>": 1136, "threadbare</w>": 1137, "approved</w>": 1138, "moment</w>": 1139, "dishear": 1140, "exclusion</w>": 1141, "hum": 1142, "romanti": 1143, "remove</w>": 1144, "tment</w>": 1145, "promise</w>": 1146, "detect</w>": 1147, "resistance</w>": 1148, "llies</w>": 1149, "liberty</w>": 1150, "world</w>": 1151, "Rosing": 1152, "ampled</w>": 1153, "point</w>": 1154, "sincerity</w>": 1155, "w": 1156, "sman</w>": 1157, "ditions</w>": 1158, "from</w>": 1159, "easing</w>": 1160, "gly</w>": 1161, "failing</w>": 1162, "educated</w>": 1163, "guardian</w>": 1164, "entail</w>": 1165, "bute</w>": 1166, "illness</w>": 1167, "fering</w>": 1168, "fetch</w>": 1169, "hur": 1170, "fortitu": 1171, "heavier</w>": 1172, "retor": 1173, "footing</w>": 1174, "reasonably</w>": 1175, "place</w>": 1176, "forgot</w>": 1177, "connect</w>": 1178, "heavens</w>": 1179, "sations</w>": 1180, "pocrisy</w>": 1181, "fire": 1182, "openness</w>": 1183, "cheerful</w>": 1184, "Miller": 1185, "gratulation</w>": 1186, "begins</w>": 1187, "ourselves</w>": 1188, "universiti": 1189, "fears</w>": 1190, "shameless</w>": 1191, "steadily</w>": 1192, "crammed</w>": 1193, "advanced</w>": 1194, "nature</w>": 1195, "menced</w>": 1196, "amusement</w>": 1197, "thir": 1198, "shoul": 1199, "expectation</w>": 1200, "ensued</w>": 1201, "recital</w>": 1202, "ey</w>": 1203, "were</w>": 1204, "mince</w>": 1205, "disliked</w>": 1206, "hers</w>": 1207, "everybodyâ</w>": 1208, "coat</w>": 1209, "suspect</w>": 1210, "disposition</w>": 1211, "Are</w>": 1212, "amused</w>": 1213, "genuine</w>": 1214, "higher</w>": 1215, "tagonist</w>": 1216, "compre": 1217, "tory</w>": 1218, "fine</w>": 1219, "explaining</w>": 1220, "alteration</w>": 1221, "immediately</w>": 1222, "injured</w>": 1223, "worthi": 1224, "indirect</w>": 1225, "ate": 1226, "insignificance</w>": 1227, "departed</w>": 1228, "prodigi": 1229, "indifferent</w>": 1230, "generate</w>": 1231, "owns</w>": 1232, "gentlemanlike</w>": 1233, "may</w>": 1234, "produced</w>": 1235, "clergy</w>": 1236, "discomposure</w>": 1237, "att": 1238, "front</w>": 1239, "best</w>": 1240, "joke</w>": 1241, "whatever</w>": 1242, "impass": 1243, "covered</w>": 1244, "attend</w>": 1245, "slyness</w>": 1246, "seeing</w>": 1247, "arrog": 1248, "adicted</w>": 1249, "l</w>": 1250, "hen": 1251, "flo": 1252, "By</w>": 1253, "takes</w>": 1254, "agreeable</w>": 1255, "uniform</w>": 1256, "charms</w>": 1257, "exact</w>": 1258, "passing</w>": 1259, "friend</w>": 1260, "nexed</w>": 1261, "King</w>": 1262, "quer</w>": 1263, "perver": 1264, "stout</w>": 1265, "nett": 1266, "ant</w>": 1267, "dirty</w>": 1268, "bets</w>": 1269, "precisely</w>": 1270, "sider</w>": 1271, "encouragement</w>": 1272, "condescension</w>": 1273, "charge</w>": 1274, "GARDINER</w>": 1275, "achable</w>": 1276, "Robinson</w>": 1277, "dee": 1278, "M</w>": 1279, "gratified</w>": 1280, "endeavours</w>": 1281, "loves</w>": 1282, "suppress</w>": 1283, "occurred</w>": 1284, "putting</w>": 1285, "lements</w>": 1286, "fif": 1287, "parting</w>": 1288, "formidable</w>": 1289, "ago</w>": 1290, "secrets</w>": 1291, "poned</w>": 1292, "refusals</w>": 1293, "enjoyments</w>": 1294, "boisterously</w>": 1295, "consider</w>": 1296, "sign</w>": 1297, "/</w>": 1298, "accomplishment</w>": 1299, "natured</w>": 1300, "livery</w>": 1301, "acknowledged</w>": 1302, "parental</w>": 1303, "ft</w>": 1304, "lls</w>": 1305, "ssingly</w>": 1306, "prett": 1307, "begged</w>": 1308, "persuasion</w>": 1309, "endeavour</w>": 1310, "I</w>": 1311, "difficulty</w>": 1312, "entreating</w>": 1313, "pain</w>": 1314, "chief</w>": 1315, "barou": 1316, "ineffec": 1317, "nieces</w>": 1318, "wore</w>": 1319, "necessary</w>": 1320, "abuse</w>": 1321, "Widely</w>": 1322, "fortunately</w>": 1323, "ssening</w>": 1324, "_thre": 1325, "returns</w>": 1326, "lluted</w>": 1327, "began</w>": 1328, "respectability</w>": 1329, "along</w>": 1330, "groom</w>": 1331, "Allow</w>": 1332, "gerous</w>": 1333, "God</w>": 1334, "boy</w>": 1335, "custom</w>": 1336, "intermission</w>": 1337, "attachment</w>": 1338, "carry</w>": 1339, "acquain": 1340, "adorned</w>": 1341, "confidence</w>": 1342, "unfo": 1343, "situation</w>": 1344, "cleared</w>": 1345, "endeavor</w>": 1346, "survived</w>": 1347, "One</w>": 1348, "merited</w>": 1349, "supply</w>": 1350, "drive</w>": 1351, "V": 1352, "George</w>": 1353, "unfold</w>": 1354, "strangers</w>": 1355, "resoun": 1356, "concerned</w>": 1357, "_sur": 1358, "Poor</w>": 1359, "refreshing</w>": 1360, "ake": 1361, "however</w>": 1362, "aden</w>": 1363, "size</w>": 1364, "indifference</w>": 1365, "glen</w>": 1366, "fingers</w>": 1367, "entertained</w>": 1368, "sing</w>": 1369, "ingenuity</w>": 1370, "living</w>": 1371, "hensible</w>": 1372, "llution</w>": 1373, "tranqui": 1374, "hasten</w>": 1375, "decent</w>": 1376, "parents</w>": 1377, "knew</w>": 1378, "imitation</w>": 1379, "stonish": 1380, "presume</w>": 1381, "be": 1382, "meant</w>": 1383, "reflection</w>": 1384, "cheerfulness</w>": 1385, "_know_</w>": 1386, "brevity</w>": 1387, "mechani": 1388, "ari": 1389, "speech</w>": 1390, "asi": 1391, "_do": 1392, "ly</w>": 1393, "impunity</w>": 1394, "instant</w>": 1395, "calmness</w>": 1396, "port</w>": 1397, "stead</w>": 1398, "eties</w>": 1399, "doubted</w>": 1400, "youth</w>": 1401, "mul": 1402, "prejudice</w>": 1403, "somehow</w>": 1404, "ir": 1405, "mistress</w>": 1406, "condescended</w>": 1407, "strange</w>": 1408, "shown</w>": 1409, "confirmation</w>": 1410, "needed</w>": 1411, "plate</w>": 1412, "double</w>": 1413, "procuring</w>": 1414, "sustained</w>": 1415, "journey</w>": 1416, "Her</w>": 1417, "em": 1418, "follows</w>": 1419, "oo</w>": 1420, "derive</w>": 1421, "pleasan": 1422, "sume</w>": 1423, "plain</w>": 1424, "chance</w>": 1425, "hall</w>": 1426, "ney": 1427, "perfect</w>": 1428, "natural</w>": 1429, "such</w>": 1430, "watching</w>": 1431, "cross</w>": 1432, "neighbours</w>": 1433, "tables</w>": 1434, "sprained</w>": 1435, "_Monday</w>": 1436, "frightened</w>": 1437, "beau": 1438, "passage</w>": 1439, "fret</w>": 1440, "comfortless</w>": 1441, "ak": 1442, "agout</w>": 1443, "eth</w>": 1444, "commendations</w>": 1445, "_will_</w>": 1446, "abhorrence</w>": 1447, "suspended</w>": 1448, "occasioned</w>": 1449, "varied</w>": 1450, "mitage</w>": 1451, "anxiety</w>": 1452, "Ar": 1453, "share</w>": 1454, "dinnertime</w>": 1455, "calm</w>": 1456, "bell</w>": 1457, "mir": 1458, "scarcely</w>": 1459, "destitute</w>": 1460, "wholly</w>": 1461, "sixteen</w>": 1462, "steadfastly</w>": 1463, "_would_</w>": 1464, "connection</w>": 1465, "ce</w>": 1466, "contracted</w>": 1467, "dines</w>": 1468, "dener": 1469, "contribute</w>": 1470, "ter": 1471, "pretensions</w>": 1472, "ssly</w>": 1473, "latter</w>": 1474, "civility</w>": 1475, "Do</w>": 1476, "quartered</w>": 1477, "mild</w>": 1478, "condo": 1479, "spiring</w>": 1480, "rec": 1481, "Cour": 1482, "deceitful</w>": 1483, "tection</w>": 1484, "</w>": 1485, "expostulation</w>": 1486, "discussed</w>": 1487, "scale</w>": 1488, "wisher</w>": 1489, "reserve</w>": 1490, "discussion</w>": 1491, "slowly</w>": 1492, "devoted</w>": 1493, "fi": 1494, "enough</w>": 1495, "compen": 1496, "senses</w>": 1497, "simpered</w>": 1498, "ver": 1499, "Only</w>": 1500, "amazed</w>": 1501, "diverted</w>": 1502, "high</w>": 1503, "der</w>": 1504, "every</w>": 1505, "supercili": 1506, "likely</w>": 1507, "husbands</w>": 1508, "provision</w>": 1509, "Fitzwilliamâ</w>": 1510, "stric": 1511, "belonged</w>": 1512, "model</w>": 1513, "marry</w>": 1514, "Ramsgate</w>": 1515, "j": 1516, "trusted</w>": 1517, "sle": 1518, "wait</w>": 1519, "introducing</w>": 1520, "innocent</w>": 1521, "intently</w>": 1522, "suspicious</w>": 1523, "uttered</w>": 1524, "music</w>": 1525, "apply</w>": 1526, "anticipation</w>": 1527, "windows</w>": 1528, "ching</w>": 1529, "le_</w>": 1530, "neat</w>": 1531, "beyond</w>": 1532, "ak</w>": 1533, "Care</w>": 1534, "distri": 1535, "venison</w>": 1536, "qualified</w>": 1537, "paying</w>": 1538, "welfare</w>": 1539, "handed</w>": 1540, "room": 1541, "directions</w>": 1542, "che": 1543, "describing</w>": 1544, "reproof": 1545, "plant</w>": 1546, "check</w>": 1547, "atious</w>": 1548, "unembarrassed</w>": 1549, "habit</w>": 1550, "Bennetâ</w>": 1551, "pping</w>": 1552, "laugh": 1553, "tired</w>": 1554, "meanwhile</w>": 1555, "_that</w>": 1556, "Hear</w>": 1557, "violence</w>": 1558, "serenity</w>": 1559, "firm": 1560, "merit</w>": 1561, "M": 1562, "pleasant</w>": 1563, "once</w>": 1564, "tar</w>": 1565, "Maria</w>": 1566, "examination</w>": 1567, "</w>": 1568, "S</w>": 1569, "born</w>": 1570, "truth</w>": 1571, "scene</w>": 1572, "</w>": 1573, "ER": 1574, "vain</w>": 1575, "matter</w>": 1576, "dupli": 1577, "fill</w>": 1578, "bearing</w>": 1579, "finest</w>": 1580, "_make_</w>": 1581, "scre": 1582, "any</w>": 1583, "considerable</w>": 1584, "poverty</w>": 1585, "prised_</w>": 1586, "Boulan": 1587, "ley</w>": 1588, "yaw": 1589, "practise</w>": 1590, "dupe</w>": 1591, "grieve</w>": 1592, "wandering</w>": 1593, "woman": 1594, "draw</w>": 1595, "we": 1596, "nods</w>": 1597, "back": 1598, "_Her_</w>": 1599, "remarkable</w>": 1600, "watched</w>": 1601, "contain</w>": 1602, "f": 1603, "animation</w>": 1604, "geni": 1605, "presumption</w>": 1606, "quick</w>": 1607, "perce": 1608, "ruled</w>": 1609, "brigh": 1610, "atived</w>": 1611, "bitter</w>": 1612, "sul": 1613, "crowned</w>": 1614, "modern</w>": 1615, "naturedly</w>": 1616, "dly</w>": 1617, "June</w>": 1618, "closed</w>": 1619, "wounded</w>": 1620, "agreement</w>": 1621, "near</w>": 1622, "fitted</w>": 1623, "ss</w>": 1624, "sho": 1625, "superintendence</w>": 1626, "Jenkinsonâ</w>": 1627, "abling</w>": 1628, "modest</w>": 1629, "chard</w>": 1630, "excused</w>": 1631, "impelled</w>": 1632, "appoin": 1633, "goes</w>": 1634, "agreeably</w>": 1635, "unknown</w>": 1636, "discuss</w>": 1637, "seeming</w>": 1638, "confide</w>": 1639, "relled</w>": 1640, "fretfully</w>": 1641, "amongst</w>": 1642, "finery</w>": 1643, "pitiful</w>": 1644, "_hauteur_</w>": 1645, "ju": 1646, "meantime</w>": 1647, "ester": 1648, "begging</w>": 1649, "humanity</w>": 1650, "edings</w>": 1651, "piece</w>": 1652, "ation_</w>": 1653, "inferiority</w>": 1654, "AR": 1655, "home</w>": 1656, "ableness</w>": 1657, "withdrawn</w>": 1658, "concerns</w>": 1659, "Epsom</w>": 1660, "words</w>": 1661, "repentance</w>": 1662, "economi": 1663, "surrounding</w>": 1664, "Couri": 1665, "occupy</w>": 1666, "conscienti": 1667, "mismanagement</w>": 1668, "exigence</w>": 1669, "possession</w>": 1670, "young</w>": 1671, "certainly</w>": 1672, "fit</w>": 1673, "_have_</w>": 1674, "rely</w>": 1675, "pedanti": 1676, "tongue</w>": 1677, "trim": 1678, "spirits</w>": 1679, "profligate</w>": 1680, "ting</w>": 1681, "oper": 1682, "overhear</w>": 1683, "intentions</w>": 1684, "inured</w>": 1685, "ck</w>": 1686, "abundant</w>": 1687, "pal": 1688, "CHAPTER</w>": 1689, "the</w>": 1690, "peopleâ</w>": 1691, "ti": 1692, "kes</w>": 1693, "mpor": 1694, "morning</w>": 1695, "haunt</w>": 1696, "prevail</w>": 1697, "much</w>": 1698, "affair</w>": 1699, "sigh</w>": 1700, "enabled</w>": 1701, "tires</w>": 1702, "approve</w>": 1703, "delights</w>": 1704, "charming</w>": 1705, "Both</w>": 1706, "retained</w>": 1707, "Gardinerâ</w>": 1708, "garden</w>": 1709, "designs</w>": 1710, "leness</w>": 1711, "concern</w>": 1712, "owned</w>": 1713, "small</w>": 1714, "weak</w>": 1715, "e</w>": 1716, "fun</w>": 1717, "spiritless</w>": 1718, "avenu": 1719, "steward</w>": 1720, "murs</w>": 1721, "succeed</w>": 1722, "cordiality</w>": 1723, "condescend</w>": 1724, "petitioned</w>": 1725, "Lizzy</w>": 1726, "management</w>": 1727, "ser</w>": 1728, "fel": 1729, "period</w>": 1730, "misrepresented</w>": 1731, "hill</w>": 1732, "introduction</w>": 1733, "ost</w>": 1734, "thanks</w>": 1735, "avoid</w>": 1736, "sp": 1737, "fic": 1738, "revived</w>": 1739, "wish</w>": 1740, "amid</w>": 1741, "popularity</w>": 1742, "occur</w>": 1743, "ocrity</w>": 1744, "bottle</w>": 1745, "occasions</w>": 1746, "intim": 1747, "mprudent</w>": 1748, "apothecary</w>": 1749, "cy</w>": 1750, "Chan": 1751, "teased</w>": 1752, "explanation</w>": 1753, "joy</w>": 1754, "liber": 1755, "cu": 1756, "making</w>": 1757, "distr": 1758, "yesterday</w>": 1759, "whether</w>": 1760, "defied</w>": 1761, "gust</w>": 1762, "subject</w>": 1763, "disservice</w>": 1764, "lose</w>": 1765, "reasoning</w>": 1766, "ble</w>": 1767, "aceâ</w>": 1768, "afforded</w>": 1769, "imagin": 1770, "benefiting</w>": 1771, "aled</w>": 1772, "class</w>": 1773, "myself</w>": 1774, "wilful</w>": 1775, "agitating</w>": 1776, "guests</w>": 1777, "behave</w>": 1778, "listened</w>": 1779, "January</w>": 1780, "menting</w>": 1781, "doors</w>": 1782, "ul": 1783, "niece</w>": 1784, "_must_</w>": 1785, "far": 1786, "Copyright</w>": 1787, "plan": 1788, "dictate</w>": 1789, "ldly</w>": 1790, "propriety</w>": 1791, "complaisance</w>": 1792, "co</w>": 1793, "modesty</w>": 1794, "uneasy</w>": 1795, "ch": 1796, "Removed</w>": 1797, "abrup": 1798, "gesting</w>": 1799, "forming</w>": 1800, "partri": 1801, "sen": 1802, "athing</w>": 1803, "addresses</w>": 1804, "none</w>": 1805, "awkwardness</w>": 1806, "litt": 1807, "residence</w>": 1808, "hates</w>": 1809, "brings</w>": 1810, "oning</w>": 1811, "siti": 1812, "state</w>": 1813, "strug": 1814, "ll</w>": 1815, "pen</w>": 1816, "resolution</w>": 1817, "felt</w>": 1818, "pretending</w>": 1819, "sists</w>": 1820, "lly</w>": 1821, "tay</w>": 1822, "grapes</w>": 1823, "drink</w>": 1824, "begin</w>": 1825, "coolly</w>": 1826, "chen</w>": 1827, "insensibility</w>": 1828, "display</w>": 1829, "sence</w>": 1830, "interview</w>": 1831, "gul": 1832, "eloquent</w>": 1833, "course</w>": 1834, "eminence</w>": 1835, "propose</w>": 1836, "protested</w>": 1837, "duc": 1838, "glory</w>": 1839, "rever": 1840, "absur": 1841, "With</w>": 1842, "splendid</w>": 1843, "succession</w>": 1844, "release</w>": 1845, "mixed</w>": 1846, "appointed</w>": 1847, "intrusion</w>": 1848, "plead</w>": 1849, "dgets</w>": 1850, "uncertainty</w>": 1851, "kissed</w>": 1852, "expec": 1853, "2": 1854, "for</w>": 1855, "Louisa</w>": 1856, "superior</w>": 1857, "darting</w>": 1858, "{</w>": 1859, "increased</w>": 1860, "effec": 1861, "fronted</w>": 1862, "inflic": 1863, "suiting</w>": 1864, "blue</w>": 1865, "stared</w>": 1866, "vene</w>": 1867, "heads</w>": 1868, "ener": 1869, "dants</w>": 1870, "without</w>": 1871, "heavy</w>": 1872, "deep</w>": 1873, "playfulness</w>": 1874, "fuseness</w>": 1875, "Denny</w>": 1876, "position</w>": 1877, "brotherâ</w>": 1878, "affor": 1879, "injuring</w>": 1880, "trou": 1881, "performed</w>": 1882, "bears</w>": 1883, "astly</w>": 1884, "advantages</w>": 1885, "bonnet</w>": 1886, "pence</w>": 1887, "_Mr</w>": 1888, "allowance</w>": 1889, "distur": 1890, "lan": 1891, "indignant</w>": 1892, "standing</w>": 1893, "h": 1894, "tened</w>": 1895, "histori": 1896, "dents</w>": 1897, "blame</w>": 1898, "acelets</w>": 1899, "diminished</w>": 1900, "anity</w>": 1901, "conclude</w>": 1902, "ungracious</w>": 1903, "beloved</w>": 1904, "aloon</w>": 1905, "interrupting</w>": 1906, "Un": 1907, "eus</w>": 1908, "dishonesty</w>": 1909, "this</w>": 1910, "experience</w>": 1911, "An</w>": 1912, "instances</w>": 1913, "looking</w>": 1914, "pales</w>": 1915, "was</w>": 1916, "husbandâ</w>": 1917, "larger</w>": 1918, "scorn</w>": 1919, "exclu": 1920, "cising</w>": 1921, "uniting</w>": 1922, "imperfectly</w>": 1923, "extraordinary</w>": 1924, "direct</w>": 1925, "gli": 1926, "per": 1927, "ything</w>": 1928, "gro": 1929, "repel</w>": 1930, "eminent</w>": 1931, "completion</w>": 1932, "having</w>": 1933, "breeding</w>": 1934, "denti": 1935, "wits</w>": 1936, "human</w>": 1937, "bition</w>": 1938, "_I_</w>": 1939, "liked</w>": 1940, "observan": 1941, "carriages</w>": 1942, "lines</w>": 1943, "vi": 1944, "turning</w>": 1945, "arity</w>": 1946, "resolved</w>": 1947, "nowingly</w>": 1948, "sister</w>": 1949, "gratitude</w>": 1950, "Well</w>": 1951, "procured</w>": 1952, "mon</w>": 1953, "number</w>": 1954, "talking</w>": 1955, "li": 1956, "Thank</w>": 1957, "wedding</w>": 1958, "ful</w>": 1959, "ted</w>": 1960, "purport</w>": 1961, "atten": 1962, "sheet</w>": 1963, "studying</w>": 1964, "shock</w>": 1965, "time</w>": 1966, "emphati": 1967, "paused</w>": 1968, "disclaim</w>": 1969, "ridiculous</w>": 1970, "list</w>": 1971, "topics</w>": 1972, "Here</w>": 1973, "punctual</w>": 1974, "kind</w>": 1975, "thirty</w>": 1976, "obtained</w>": 1977, "bru": 1978, "nerves</w>": 1979, "preserved</w>": 1980, "ast": 1981, "sentiment_</w>": 1982, "D</w>": 1983, "cap": 1984, "gain</w>": 1985, "wonderful</w>": 1986, "tailed</w>": 1987, "apology</w>": 1988, "office</w>": 1989, "convinced</w>": 1990, "beheld</w>": 1991, "deceive</w>": 1992, "confined</w>": 1993, "vanity</w>": 1994, "aced</w>": 1995, "insure</w>": 1996, "morning": 1997, "rain</w>": 1998, "_You_</w>": 1999, "disgr": 2000, "alarming</w>": 2001, "pen": 2002, "solely</w>": 2003, "continual</w>": 2004, "dure</w>": 2005, "vicious</w>": 2006, "curio": 2007, "ust</w>": 2008, "use</w>": 2009, "terms</w>": 2010, "dead</w>": 2011, "nobody</w>": 2012, "by</w>": 2013, "took</w>": 2014, "remark</w>": 2015, "beque": 2016, "preclu": 2017, "ttention</w>": 2018, "undo</w>": 2019, "pointing</w>": 2020, "rs</w>": 2021, "arring": 2022, "prise</w>": 2023, "_you_</w>": 2024, "inquire</w>": 2025, "article</w>": 2026, "regularly</w>": 2027, "stret": 2028, "onour": 2029, "This</w>": 2030, "upper</w>": 2031, "For": 2032, "five</w>": 2033, "accompanying</w>": 2034, "Who</w>": 2035, "somewhere</w>": 2036, "good</w>": 2037, "noticed</w>": 2038, "owe</w>": 2039, "exertion</w>": 2040, "dained</w>": 2041, "lation</w>": 2042, "faced</w>": 2043, "go": 2044, "walking</w>": 2045, "atter": 2046, "flown</w>": 2047, "carefully</w>": 2048, "attracted</w>": 2049, "oulding</w>": 2050, "pend</w>": 2051, "crossing</w>": 2052, "fifty</w>": 2053, "hoods</w>": 2054, "sofas</w>": 2055, "Parsonage</w>": 2056, "dic": 2057, "asis</w>": 2058, "more</w>": 2059, "employment</w>": 2060, "affect</w>": 2061, "ling</w>": 2062, "Younge</w>": 2063, "allevi": 2064, "pped</w>": 2065, "ner": 2066, "officer</w>": 2067, "conjectures</w>": 2068, "suggest</w>": 2069, "reasons</w>": 2070, "visible</w>": 2071, "favourite</w>": 2072, "sal</w>": 2073, "aching</w>": 2074, "effort</w>": 2075, "ser": 2076, "resolutely</w>": 2077, "insignificant</w>": 2078, "total</w>": 2079, "lement</w>": 2080, "relationship</w>": 2081, "appears</w>": 2082, "waited</w>": 2083, "nor</w>": 2084, "spect</w>": 2085, "partial</w>": 2086, "social</w>": 2087, "als</w>": 2088, "preaching</w>": 2089, "creditors</w>": 2090, "assed</w>": 2091, "tarines</w>": 2092, "civilities</w>": 2093, "cur": 2094, "aw": 2095, "soon</w>": 2096, "comparison</w>": 2097, "_are_</w>": 2098, "Everybody</w>": 2099, "looks</w>": 2100, "seek</w>": 2101, "stone</w>": 2102, "ring</w>": 2103, "offers</w>": 2104, "playful</w>": 2105, "roo": 2106, "relates</w>": 2107, "esteemed</w>": 2108, "contri": 2109, "non": 2110, "paid</w>": 2111, "Promise</w>": 2112, "dearest</w>": 2113, "ject</w>": 2114, "attach</w>": 2115, "noble</w>": 2116, "ved</w>": 2117, "stead": 2118, "all": 2119, "consul": 2120, "terested</w>": 2121, "strenu": 2122, "ghing</w>": 2123, "upbr": 2124, "captivation</w>": 2125, "seem</w>": 2126, "ssest</w>": 2127, "being</w>": 2128, "debts</w>": 2129, "grow": 2130, "overtaken</w>": 2131, "ceremonious</w>": 2132, "discerni": 2133, "directly</w>": 2134, "than</w>": 2135, "motives</w>": 2136, "early</w>": 2137, "predict</w>": 2138, "mornings</w>": 2139, "composure</w>": 2140, "boys</w>": 2141, "supposition</w>": 2142, "convert</w>": 2143, "lenced</w>": 2144, "deference</w>": 2145, "incredulity</w>": 2146, "reflections</w>": 2147, "Excellent</w>": 2148, "requited</w>": 2149, "_mu": 2150, "cup</w>": 2151, "expectations</w>": 2152, "From</w>": 2153, "occur": 2154, "hance</w>": 2155, "ving</w>": 2156, "towards</w>": 2157, "selected</w>": 2158, "trim</w>": 2159, "tels</w>": 2160, "meet</w>": 2161, "which</w>": 2162, "taught</w>": 2163, "bore</w>": 2164, "influence</w>": 2165, "warmly</w>": 2166, "Tease</w>": 2167, "successor</w>": 2168, "secured</w>": 2169, "tingly</w>": 2170, "awed</w>": 2171, "reflected</w>": 2172, "accordingly</w>": 2173, "reasonable</w>": 2174, "ame</w>": 2175, "_do_</w>": 2176, "happy</w>": 2177, "distrusted</w>": 2178, "necessity</w>": 2179, "heigh": 2180, "lled</w>": 2181, "t": 2182, "acknowledge</w>": 2183, "grown</w>": 2184, "Excuse</w>": 2185, "are</w>": 2186, "pure</w>": 2187, "near": 2188, "proceeding</w>": 2189, "ating</w>": 2190, "pursu": 2191, "favours</w>": 2192, "name</w>": 2193, "won</w>": 2194, "roun": 2195, "in": 2196, "lessness</w>": 2197, "nobodyâ</w>": 2198, "change</w>": 2199, "prudence</w>": 2200, "reason</w>": 2201, "agitated</w>": 2202, "minuteness</w>": 2203, "dinners</w>": 2204, "opposition</w>": 2205, "delicacy</w>": 2206, "pains</w>": 2207, "laughed</w>": 2208, "intimate</w>": 2209, "happen</w>": 2210, "heal</w>": 2211, "teen</w>": 2212, "allowing</w>": 2213, "ders</w>": 2214, "Though</w>": 2215, "daily</w>": 2216, "fresh</w>": 2217, "talk</w>": 2218, "spec": 2219, "benefited</w>": 2220, "heartily</w>": 2221, "evening</w>": 2222, "likes</w>": 2223, "extreme</w>": 2224, "softened</w>": 2225, "stacles</w>": 2226, "eligible</w>": 2227, "require</w>": 2228, "compassion</w>": 2229, "way</w>": 2230, "s</w>": 2231, "madam</w>": 2232, "apprehen": 2233, "Indeed</w>": 2234, "fain": 2235, "horseâ</w>": 2236, "dis": 2237, "arrival</w>": 2238, "work</w>": 2239, "compass</w>": 2240, "interest</w>": 2241, "tri": 2242, "pleased</w>": 2243, "arguments</w>": 2244, "sit</w>": 2245, "omitted</w>": 2246, "clearer</w>": 2247, "ager</w>": 2248, "offending</w>": 2249, "contr": 2250, "dan": 2251, "knowledge</w>": 2252, "ceâ</w>": 2253, "duties</w>": 2254, "counteracted</w>": 2255, "horse": 2256, "Because</w>": 2257, "temp": 2258, "lot</w>": 2259, "backgammon</w>": 2260, "d": 2261, "repeated</w>": 2262, "detaining</w>": 2263, "remains</w>": 2264, "Dining</w>": 2265, "him</w>": 2266, "disgusting</w>": 2267, "who</w>": 2268, "ristening</w>": 2269, "tents</w>": 2270, "admired</w>": 2271, "teach</w>": 2272, "minutest</w>": 2273, "oned</w>": 2274, "son</w>": 2275, "history</w>": 2276, "ttagers</w>": 2277, "visitors</w>": 2278, "bodi": 2279, "amping</w>": 2280, "disinclined</w>": 2281, "arrange</w>": 2282, "ridicule</w>": 2283, "out": 2284, "Lydiaâ</w>": 2285, "her</w>": 2286, "_k": 2287, "requiring</w>": 2288, "bewit": 2289, "enter</w>": 2290, "IX</w>": 2291, "liable</w>": 2292, "sof": 2293, "when": 2294, "agree</w>": 2295, "intention</w>": 2296, "dependence</w>": 2297, "To</w>": 2298, "bering</w>": 2299, "grati": 2300, "tal": 2301, "vocal</w>": 2302, "valued</w>": 2303, "crushing</w>": 2304, "obliged</w>": 2305, "caution</w>": 2306, "alls</w>": 2307, "comfortably</w>": 2308, "beg</w>": 2309, "viewing</w>": 2310, "asserted</w>": 2311, "wondered</w>": 2312, "feet</w>": 2313, "soo": 2314, "untinc": 2315, "assisted</w>": 2316, "Whether</w>": 2317, "silence</w>": 2318, "sonâ</w>": 2319, "daresay</w>": 2320, "abour</w>": 2321, "sett": 2322, "Amon": 2323, "only</w>": 2324, "mistakes</w>": 2325, "own</w>": 2326, "review</w>": 2327, "schemes</w>": 2328, "unequally</w>": 2329, "impl": 2330, "testimon": 2331, "onable</w>": 2332, "ittle</w>": 2333, "por": 2334, "ope</w>": 2335, "Remember</w>": 2336, "with": 2337, "eless</w>": 2338, "awings</w>": 2339, "portraits</w>": 2340, "th</w>": 2341, "theirs</w>": 2342, "satisfied</w>": 2343, "avowal</w>": 2344, "dar": 2345, "hastily</w>": 2346, "glad</w>": 2347, "sne": 2348, "deligh": 2349, "acquired</w>": 2350, "recur": 2351, "derived</w>": 2352, "tem": 2353, "_her": 2354, "witti": 2355, "mansion</w>": 2356, "aling</w>": 2357, "med</w>": 2358, "exhi": 2359, "ined</w>": 2360, "affairs</w>": 2361, "formation</w>": 2362, "carried</w>": 2363, "happiness</w>": 2364, "white</w>": 2365, "conceive</w>": 2366, "feature</w>": 2367, "portr": 2368, "haunch</w>": 2369, "premeditated</w>": 2370, "conv": 2371, "grove</w>": 2372, "Dearest</w>": 2373, "personal</w>": 2374, "ssing</w>": 2375, "according</w>": 2376, "congratulation</w>": 2377, "Vain</w>": 2378, "chan": 2379, "misled</w>": 2380, "privileged</w>": 2381, "Society</w>": 2382, "ariti": 2383, "athers</w>": 2384, "threw</w>": 2385, "wallowed</w>": 2386, "formed</w>": 2387, "transactions</w>": 2388, "thre": 2389, "address</w>": 2390, "engagements</w>": 2391, "fin</w>": 2392, "ated</w>": 2393, "child</w>": 2394, "son": 2395, "cement</w>": 2396, "orders</w>": 2397, "angel</w>": 2398, "perusing</w>": 2399, "supposed</w>": 2400, "caprice</w>": 2401, "utter": 2402, "any": 2403, "his</w>": 2404, "p": 2405, "Monday</w>": 2406, "belongs</w>": 2407, "amp</w>": 2408, "excepting</w>": 2409, "overthrow</w>": 2410, "Every</w>": 2411, "ut</w>": 2412, "vou": 2413, "pleasantest</w>": 2414, "lived</w>": 2415, "Jones</w>": 2416, "whole</w>": 2417, "fy</w>": 2418, "sink</w>": 2419, "alarm</w>": 2420, "whence</w>": 2421, "super": 2422, "enor": 2423, "avari": 2424, "that</w>": 2425, "ase": 2426, "foretold</w>": 2427, "smoo": 2428, "pri": 2429, "appearing</w>": 2430, "atively</w>": 2431, "announce</w>": 2432, "sequenti": 2433, "industri": 2434, "Lucases</w>": 2435, "idea</w>": 2436, "especially</w>": 2437, "circle</w>": 2438, "bequest</w>": 2439, "momentâ</w>": 2440, "ption</w>": 2441, "arranging</w>": 2442, "own": 2443, "brilliancy</w>": 2444, "scandalous</w>": 2445, "finally</w>": 2446, "corner</w>": 2447, "miserable</w>": 2448, "previous</w>": 2449, "audi": 2450, "later</w>": 2451, "hastening</w>": 2452, "anecdo": 2453, "hour</w>": 2454, "pu": 2455, "cise</w>": 2456, "illustration</w>": 2457, "everything</w>": 2458, "transi": 2459, "ger</w>": 2460, "len": 2461, "preparing</w>": 2462, "suffer</w>": 2463, "ere</w>": 2464, "scheme</w>": 2465, "keep</w>": 2466, "perceiving</w>": 2467, "petulance</w>": 2468, "scarlet</w>": 2469, "restrained</w>": 2470, "displayed</w>": 2471, "_missish": 2472, "": 2473, "answers</w>": 2474, "bills</w>": 2475, "amiable</w>": 2476, "checked</w>": 2477, "choose</w>": 2478, "impression</w>": 2479, "observe</w>": 2480, "excessively</w>": 2481, "esce</w>": 2482, "falsehood</w>": 2483, "subsisting</w>": 2484, "impartial</w>": 2485, "score</w>": 2486, "communications</w>": 2487, "distant</w>": 2488, "neighbour": 2489, "paddock</w>": 2490, "vanished</w>": 2491, "fair": 2492, "appiness</w>": 2493, "tempered</w>": 2494, "beneficence</w>": 2495, "live</w>": 2496, "husband</w>": 2497, "amazement</w>": 2498, "disappointing</w>": 2499, "conveyed</w>": 2500, "fl": 2501, "excited</w>": 2502, "support</w>": 2503, "clergyman</w>": 2504, "acious</w>": 2505, "master</w>": 2506, "_man": 2507, "source</w>": 2508, "witne": 2509, "simpleton</w>": 2510, "quest</w>": 2511, "resentment</w>": 2512, "inevitable</w>": 2513, "chases</w>": 2514, "adapted</w>": 2515, "acquaintance</w>": 2516, "thoughtful</w>": 2517, "digre": 2518, "their</w>": 2519, "apologized</w>": 2520, "steadiness</w>": 2521, "rific</w>": 2522, "regarded</w>": 2523, "girls</w>": 2524, "diminution</w>": 2525, "blow": 2526, "L": 2527, "lately</w>": 2528, "elop": 2529, "preferred</w>": 2530, "teasing</w>": 2531, "hardest</w>": 2532, "capers</w>": 2533, "reconsidering</w>": 2534, "tells</w>": 2535, "XX": 2536, "bare</w>": 2537, "recede</w>": 2538, "made</w>": 2539, "ritated</w>": 2540, "reject</w>": 2541, "those</w>": 2542, "induce</w>": 2543, "jestingly</w>": 2544, "You</w>": 2545, "smart</w>": 2546, "Collin": 2547, "woods</w>": 2548, "partake</w>": 2549, "unreasonable</w>": 2550, "investig": 2551, "horse</w>": 2552, "accur": 2553, "glect</w>": 2554, "consolation</w>": 2555, "accurate</w>": 2556, "Philipsâ</w>": 2557, "Scotch</w>": 2558, "kept</w>": 2559, "Most</w>": 2560, "imputed</w>": 2561, "rapidly</w>": 2562, "perceive</w>": 2563, "tempted</w>": 2564, "complaining</w>": 2565, "entailed</w>": 2566, "evable</w>": 2567, "progress</w>": 2568, "child_</w>": 2569, "would</w>": 2570, "odd</w>": 2571, "governess</w>": 2572, "players</w>": 2573, "instrument</w>": 2574, "win": 2575, "noise</w>": 2576, "Jonesâ</w>": 2577, "re": 2578, "housekeeper</w>": 2579, "acquisition</w>": 2580, "titu": 2581, "engro": 2582, "undeserving</w>": 2583, "mps</w>": 2584, "elevation</w>": 2585, "cence</w>": 2586, "fortnightâ</w>": 2587, "letters</w>": 2588, "freck": 2589, "gaily</w>": 2590, "narrow</w>": 2591, "destru": 2592, "deeper</w>": 2593, "nay</w>": 2594, "justing</w>": 2595, "rame</w>": 2596, "tallest</w>": 2597, "needless</w>": 2598, "since</w>": 2599, "ation</w>": 2600, "flattered</w>": 2601, "distress</w>": 2602, "treasure</w>": 2603, "shocking</w>": 2604, "thereby</w>": 2605, "guine": 2606, "rish</w>": 2607, "beauties</w>": 2608, "fender</w>": 2609, "uncontro": 2610, "low</w>": 2611, "censure</w>": 2612, "spend</w>": 2613, "never</w>": 2614, "fortunes</w>": 2615, "guided</w>": 2616, "hor": 2617, "hurt</w>": 2618, "sur": 2619, "descended</w>": 2620, "impenetrably</w>": 2621, "_mo": 2622, "mi": 2623, "overthrown</w>": 2624, "begs</w>": 2625, "happening</w>": 2626, "sufficient</w>": 2627, "Oc": 2628, "forms</w>": 2629, "Lodge</w>": 2630, "sharpened</w>": 2631, "hardly</w>": 2632, "cannot</w>": 2633, "summer</w>": 2634, "utmost</w>": 2635, "invite</w>": 2636, "faint</w>": 2637, "conclu": 2638, "agoni": 2639, "years</w>": 2640, "lent</w>": 2641, "busy</w>": 2642, "VIII</w>": 2643, "stranger</w>": 2644, "_their_</w>": 2645, "toi": 2646, "console</w>": 2647, "Co": 2648, "adopt</w>": 2649, "loo</w>": 2650, "collection</w>": 2651, "recover</w>": 2652, "deal</w>": 2653, "af": 2654, "adows</w>": 2655, "water</w>": 2656, "politeness</w>": 2657, "_your_</w>": 2658, "bery</w>": 2659, "persisted</w>": 2660, "cherish</w>": 2661, "opposite</w>": 2662, "a</w>": 2663, "hundred</w>": 2664, "stentation</w>": 2665, "could_</w>": 2666, "retailing</w>": 2667, "ladyâ</w>": 2668, "perverseness</w>": 2669, "inviting</w>": 2670, "break</w>": 2671, "shaking</w>": 2672, "dispose</w>": 2673, "farther</w>": 2674, "accomplished</w>": 2675, "generally</w>": 2676, "ased</w>": 2677, "mises</w>": 2678, "demand</w>": 2679, "mere</w>": 2680, "unwelcome</w>": 2681, "vals</w>": 2682, "disgusted</w>": 2683, "encourage</w>": 2684, "means</w>": 2685, "dependent</w>": 2686, "posterity</w>": 2687, "defy</w>": 2688, "glance</w>": 2689, "weep</w>": 2690, "symp": 2691, "ecuted</w>": 2692, "vious</w>": 2693, "spran": 2694, "haves</w>": 2695, "Christi": 2696, "furniture</w>": 2697, "herself</w>": 2698, "vin": 2699, "reve": 2700, "frank": 2701, "ast</w>": 2702, "tfully</w>": 2703, "ladiesâ</w>": 2704, "thoughts</w>": 2705, "surmise</w>": 2706, "post": 2707, "behaviour</w>": 2708, "quet</w>": 2709, "Gran": 2710, "moderation</w>": 2711, "right</w>": 2712, "?</w>": 2713, "ne</w>": 2714, "acken</w>": 2715, "Jenkinson</w>": 2716, "tupi": 2717, "similarity</w>": 2718, "bow</w>": 2719, "Collins</w>": 2720, "muslins</w>": 2721, "hunting</w>": 2722, "compli": 2723, "smirks</w>": 2724, "consistency</w>": 2725, "feared</w>": 2726, "longer</w>": 2727, "planning</w>": 2728, "say</w>": 2729, "six</w>": 2730, "ed": 2731, "About</w>": 2732, "amidst</w>": 2733, "expenses</w>": 2734, "numerous</w>": 2735, "O</w>": 2736, "servan": 2737, "hack": 2738, "raised</w>": 2739, "throwing</w>": 2740, "ali": 2741, "ent</w>": 2742, "abroad</w>": 2743, "embarrassed</w>": 2744, "reading</w>": 2745, "against</w>": 2746, "originally</w>": 2747, "associ": 2748, "beginning</w>": 2749, "shameful</w>": 2750, "brother</w>": 2751, "attribute</w>": 2752, "smile</w>": 2753, "secretly</w>": 2754, "lay</w>": 2755, "started</w>": 2756, "sitting</w>": 2757, "La</w>": 2758, "patience</w>": 2759, "assembly</w>": 2760, "employ</w>": 2761, "women": 2762, "ateness</w>": 2763, "scheme_</w>": 2764, "tÃªte_</w>": 2765, "market</w>": 2766, "inquiry</w>": 2767, "eloped</w>": 2768, "appetite</w>": 2769, "contrary</w>": 2770, "scolding</w>": 2771, "aloud</w>": 2772, "blow</w>": 2773, "cordially</w>": 2774, "II</w>": 2775, "good_</w>": 2776, "cler": 2777, "headstrong</w>": 2778, "opportunity</w>": 2779, "solidity</w>": 2780, "discouraged</w>": 2781, "ecstasy</w>": 2782, "spur</w>": 2783, "despised</w>": 2784, "mouth</w>": 2785, "noblest</w>": 2786, "exclaiming</w>": 2787, "unguarded</w>": 2788, "divide</w>": 2789, "forget</w>": 2790, "joined</w>": 2791, "Lizzie</w>": 2792, "twenty</w>": 2793, "readiness</w>": 2794, "claimed</w>": 2795, "ather</w>": 2796, "hackney</w>": 2797, "afety</w>": 2798, "Kitty</w>": 2799, "created</w>": 2800, "witty</w>": 2801, "sickly</w>": 2802, "cham": 2803, "insinu": 2804, "prev": 2805, "bling</w>": 2806, "mu": 2807, "ming</w>": 2808, "stitute</w>": 2809, "sole</w>": 2810, "delivering</w>": 2811, "elded</w>": 2812, "Yours</w>": 2813, "amed</w>": 2814, "imitate</w>": 2815, "removed</w>": 2816, "fold</w>": 2817, "contained</w>": 2818, "prettier</w>": 2819, "constantly</w>": 2820, "truly</w>": 2821, "thorou": 2822, "puzzle</w>": 2823, "winter</w>": 2824, "wret": 2825, "Ni": 2826, "pation</w>": 2827, "horror</w>": 2828, "dischar": 2829, "backed</w>": 2830, "greater</w>": 2831, "implied</w>": 2832, "imply</w>": 2833, "slow</w>": 2834, "retired</w>": 2835, "enemy</w>": 2836, "dayâ</w>": 2837, "represented</w>": 2838, "hate</w>": 2839, "can": 2840, "avours</w>": 2841, "newest</w>": 2842, "spite</w>": 2843, "annum</w>": 2844, "slightest</w>": 2845, "urged</w>": 2846, "unwillingly</w>": 2847, "test</w>": 2848, "transpor": 2849, "betray</w>": 2850, "aâ</w>": 2851, "lovely</w>": 2852, "dget</w>": 2853, "easy</w>": 2854, "Com": 2855, "distrust</w>": 2856, "moderate</w>": 2857, "priz": 2858, "Lakes</w>": 2859, "witnessed</w>": 2860, "Merely</w>": 2861, "wor": 2862, "fourth</w>": 2863, "rejecting</w>": 2864, "convey</w>": 2865, "remon": 2866, "Without</w>": 2867, "dropped</w>": 2868, "billi": 2869, "feverish</w>": 2870, "circumspection</w>": 2871, "tâ</w>": 2872, "stupidity</w>": 2873, "ritable</w>": 2874, "warm</w>": 2875, "collect</w>": 2876, "attach": 2877, "kiss</w>": 2878, "Fe": 2879, "involved</w>": 2880, "themâ</w>": 2881, "superinten": 2882, "Will</w>": 2883, "ceforth</w>": 2884, "rings</w>": 2885, "yourselves</w>": 2886, "able_</w>": 2887, "scold</w>": 2888, "bl": 2889, "food_</w>": 2890, "pitied</w>": 2891, "ainous</w>": 2892, "earnestly</w>": 2893, "acceding</w>": 2894, "ature</w>": 2895, "upstairs</w>": 2896, "ligence</w>": 2897, "Wherever</w>": 2898, "propen": 2899, "watchfulness</w>": 2900, "serious</w>": 2901, "breach</w>": 2902, "learn</w>": 2903, "affected</w>": 2904, "unusual</w>": 2905, "attentions</w>": 2906, "le</w>": 2907, "contents</w>": 2908, "reserved</w>": 2909, "Å": 2910, "mend</w>": 2911, "shape</w>": 2912, "increasing</w>": 2913, "constant</w>": 2914, "came</w>": 2915, "alter</w>": 2916, "refusing</w>": 2917, "feels</w>": 2918, "crowded</w>": 2919, "ty</w>": 2920, "know</w>": 2921, "doubt</w>": 2922, "eying</w>": 2923, "complaint</w>": 2924, "driving</w>": 2925, "sets</w>": 2926, "Mari": 2927, "tack": 2928, "miniatures</w>": 2929, "sum": 2930, "uncivil</w>": 2931, "inclined</w>": 2932, "courting</w>": 2933, "colonel</w>": 2934, "expected</w>": 2935, "ced</w>": 2936, "_dislike_</w>": 2937, "reproach</w>": 2938, "accede</w>": 2939, "pr": 2940, "^</w>": 2941, "_is_</w>": 2942, "A</w>": 2943, "hesitated</w>": 2944, "of": 2945, "least</w>": 2946, "repaired</w>": 2947, "existence</w>": 2948, "defiance</w>": 2949, "sent</w>": 2950, "displeasure</w>": 2951, "ssively</w>": 2952, "N": 2953, "inclination</w>": 2954, "also</w>": 2955, "echo</w>": 2956, "conference</w>": 2957, "diffident</w>": 2958, "younger</w>": 2959, "composed</w>": 2960, "Derbyshire</w>": 2961, "trans": 2962, "masterâ</w>": 2963, "public</w>": 2964, "cried</w>": 2965, "ssened</w>": 2966, "turous</w>": 2967, "walks</w>": 2968, "wels</w>": 2969, "hot</w>": 2970, "answer</w>": 2971, "sparkled</w>": 2972, "horseback</w>": 2973, "communicate</w>": 2974, "indignity</w>": 2975, "containing</w>": 2976, "opening</w>": 2977, "convenient</w>": 2978, "application</w>": 2979, "acknowledgment</w>": 2980, "condem": 2981, "used</w>": 2982, "heretofore</w>": 2983, "suf": 2984, "mischief</w>": 2985, "has</w>": 2986, "but": 2987, "force</w>": 2988, "pur": 2989, "hurry</w>": 2990, "honoured</w>": 2991, "fixing</w>": 2992, "had</w>": 2993, "bidding</w>": 2994, "money</w>": 2995, "A": 2996, "tones</w>": 2997, "nar": 2998, "actions</w>": 2999, "divided</w>": 3000, "extracts</w>": 3001, "animated</w>": 3002, "trust</w>": 3003, "superi": 3004, "poured</w>": 3005, "considerations</w>": 3006, "pressed</w>": 3007, "_one_</w>": 3008, "reached</w>": 3009, "sug": 3010, "atness</w>": 3011, "adequ": 3012, "driven</w>": 3013, "remained</w>": 3014, "pleasure</w>": 3015, "north</w>": 3016, "undoubtedly</w>": 3017, "asted</w>": 3018, "gives</w>": 3019, "comfortable</w>": 3020, "Very</w>": 3021, "choice</w>": 3022, "step</w>": 3023, "surprised</w>": 3024, "cheering</w>": 3025, "consequence</w>": 3026, "guest</w>": 3027, "introduced</w>": 3028, "aliz": 3029, "Tis</w>": 3030, "inhabitants</w>": 3031, "friend": 3032, "contented</w>": 3033, "children</w>": 3034, "quite</w>": 3035, "ac": 3036, "decide</w>": 3037, "anish</w>": 3038, "strongly</w>": 3039, "followed</w>": 3040, "manâ</w>": 3041, "inferior</w>": 3042, "deception</w>": 3043, "age</w>": 3044, "sation</w>": 3045, "com": 3046, "occupation</w>": 3047, "ade": 3048, "loveliness</w>": 3049, "appeal</w>": 3050, "adieu</w>": 3051, "commendation</w>": 3052, "cal</w>": 3053, "wandered</w>": 3054, "befall</w>": 3055, "invariably</w>": 3056, "ding</w>": 3057, "former</w>": 3058, "entreated</w>": 3059, "_my</w>": 3060, "retreating</w>": 3061, "completed</w>": 3062, "sion</w>": 3063, "calm": 3064, "neglecting</w>": 3065, "dently</w>": 3066, "dictated</w>": 3067, "affectionately</w>": 3068, "hurried</w>": 3069, "ton": 3070, "acutely</w>": 3071, "Four</w>": 3072, "very</w>": 3073, "ex": 3074, "No</w>": 3075, "worse</w>": 3076, "possibility</w>": 3077, "hears</w>": 3078, "Brighton</w>": 3079, "neglect</w>": 3080, "conclusion</w>": 3081, "wer</w>": 3082, "hither</w>": 3083, "strike</w>": 3084, "junction</w>": 3085, "niz": 3086, "stationed</w>": 3087, "law</w>": 3088, "ering</w>": 3089, "tal</w>": 3090, "misunderstand</w>": 3091, "actually</w>": 3092, "discharge</w>": 3093, "cluster</w>": 3094, "haz": 3095, "blush</w>": 3096, "around</w>": 3097, "assertions</w>": 3098, "imitations</w>": 3099, "feel</w>": 3100, "on_</w>": 3101, "told</w>": 3102, "adi": 3103, "dictates</w>": 3104, "eat</w>": 3105, "widely</w>": 3106, "eye</w>": 3107, "jo": 3108, "ow": 3109, "aboun": 3110, "lanes</w>": 3111, "cover</w>": 3112, "silly</w>": 3113, "Generous</w>": 3114, "true</w>": 3115, "Their</w>": 3116, "beautiful</w>": 3117, "different</w>": 3118, "amount</w>": 3119, "occupied</w>": 3120, "ship</w>": 3121, "affability</w>": 3122, "begin": 3123, "ags</w>": 3124, "belief</w>": 3125, "father</w>": 3126, "utter</w>": 3127, "woun": 3128, "conscience</w>": 3129, "impre": 3130, "bre": 3131, "philosophi": 3132, "retail</w>": 3133, "domestic</w>": 3134, "quitted</w>": 3135, "confidenti": 3136, "parentâ</w>": 3137, "union</w>": 3138, "requesting</w>": 3139, "ben": 3140, "assent</w>": 3141, "applied</w>": 3142, "elevated</w>": 3143, "dress</w>": 3144, "character</w>": 3145, "augh": 3146, "appearance</w>": 3147, "bow": 3148, "delight</w>": 3149, "cali": 3150, "contrivance</w>": 3151, "sting</w>": 3152, "reserves</w>": 3153, "inheriting</w>": 3154, "gements</w>": 3155, "Janeâ</w>": 3156, "part</w>": 3157, "1": 3158, "_insist_</w>": 3159, "flattering</w>": 3160, "sters</w>": 3161, "quen": 3162, "wel</w>": 3163, "inattention</w>": 3164, "admitted</w>": 3165, "street</w>": 3166, "authoritative</w>": 3167, "At</w>": 3168, "come": 3169, "We</w>": 3170, "oul": 3171, "shop": 3172, "begun</w>": 3173, "beli": 3174, "vigorously</w>": 3175, "destined</w>": 3176, "reconciliation</w>": 3177, "equi": 3178, "probity</w>": 3179, "escape</w>": 3180, "light</w>": 3181, "influ": 3182, "quette</w>": 3183, "surprise</w>": 3184, "absolutely</w>": 3185, "ruin</w>": 3186, "former": 3187, "intrude</w>": 3188, "think</w>": 3189, "athering</w>": 3190, "rob</w>": 3191, "hal": 3192, "gard</w>": 3193, "on</w>": 3194, "On</w>": 3195, "strong</w>": 3196, "imaginable</w>": 3197, "skill</w>": 3198, "habitual</w>": 3199, "pleasantly</w>": 3200, "premeditation</w>": 3201, "atened</w>": 3202, "professions</w>": 3203, "letter</w>": 3204, "sisted</w>": 3205, "dant</w>": 3206, "judge</w>": 3207, "lady</w>": 3208, "captiv": 3209, "admittance</w>": 3210, "attempted</w>": 3211, "ameless</w>": 3212, "can</w>": 3213, "graciousness</w>": 3214, "obsequi": 3215, "ckedness</w>": 3216, "says</w>": 3217, "laughter</w>": 3218, "affirmative</w>": 3219, "reverting</w>": 3220, "avering</w>": 3221, "nourishes</w>": 3222, "finished</w>": 3223, "posse": 3224, "stoutly</w>": 3225, "dreadful</w>": 3226, "livings</w>": 3227, "Why</w>": 3228, "then</w>": 3229, "aker</w>": 3230, "apologies</w>": 3231, "C": 3232, "actual</w>": 3233, "assertion</w>": 3234, "purposely</w>": 3235, "afraid</w>": 3236, "asked</w>": 3237, "az": 3238, "times</w>": 3239, "worth</w>": 3240, "line</w>": 3241, "chin</w>": 3242, "quiet</w>": 3243, "painful</w>": 3244, "creatures</w>": 3245, "contrast</w>": 3246, "shrubbery</w>": 3247, "ad</w>": 3248, "cordial</w>": 3249, "con": 3250, "Undoubtedly</w>": 3251, "fatigue</w>": 3252, "dark</w>": 3253, "misleading</w>": 3254, "suspec": 3255, "decline</w>": 3256, "berant</w>": 3257, "meditations</w>": 3258, "recre": 3259, "Bingleys</w>": 3260, "lasted</w>": 3261, "companied</w>": 3262, "pleasantness</w>": 3263, "han": 3264, "exhibition</w>": 3265, "regularity</w>": 3266, "November</w>": 3267, "manent</w>": 3268, "quar": 3269, "_tal": 3270, "meditate</w>": 3271, "besides</w>": 3272, "letting</w>": 3273, "mantel</w>": 3274, "mutually</w>": 3275, "confused</w>": 3276, "obligingly</w>": 3277, "hings</w>": 3278, "evils</w>": 3279, "emphasis</w>": 3280, "assuring</w>": 3281, "whi": 3282, "practises</w>": 3283, "neg": 3284, "fli": 3285, "and</w>": 3286, "manner</w>": 3287, "pre": 3288, "within</w>": 3289, "persons</w>": 3290, "difficult</w>": 3291, "meanly</w>": 3292, "discreditable</w>": 3293, "renewing</w>": 3294, "recollected</w>": 3295, "nal</w>": 3296, "unite</w>": 3297, "decked</w>": 3298, "evenings</w>": 3299, "privately</w>": 3300, "gradu": 3301, "permission</w>": 3302, "several</w>": 3303, "wears</w>": 3304, "obtain</w>": 3305, "ters</w>": 3306, "drawing</w>": 3307, "selec": 3308, "confinement</w>": 3309, "disengaged</w>": 3310, "walk</w>": 3311, "ying</w>": 3312, "tea</w>": 3313, "fatherâ</w>": 3314, "correct</w>": 3315, "ssive</w>": 3316, "page</w>": 3317, "All</w>": 3318, "table</w>": 3319, "relations</w>": 3320, "dwelt</w>": 3321, "sensibility</w>": 3322, "dissol": 3323, "restored</w>": 3324, "super</w>": 3325, "dless</w>": 3326, "exposing</w>": 3327, "back</w>": 3328, "presently</w>": 3329, "vices</w>": 3330, "your</w>": 3331, "charac": 3332, "yish</w>": 3333, "another</w>": 3334, "offensive</w>": 3335, "hausti": 3336, "frankness</w>": 3337, "intru": 3338, "cr": 3339, "doubts</w>": 3340, "morrow</w>": 3341, "assume</w>": 3342, "fearing</w>": 3343, "stupider</w>": 3344, "broken</w>": 3345, "nitu": 3346, "converse</w>": 3347, "fru": 3348, "deliberation</w>": 3349, "asperate</w>": 3350, "invari": 3351, "ceremony</w>": 3352, "quarter</w>": 3353, "inconce": 3354, "refer": 3355, "willed</w>": 3356, "Lady</w>": 3357, "spaper</w>": 3358, "impo": 3359, "tenants</w>": 3360, "aste</w>": 3361, "rewarded</w>": 3362, "lear": 3363, "aments</w>": 3364, "tures</w>": 3365, "bear</w>": 3366, "sol": 3367, "pleases</w>": 3368, "feâ</w>": 3369, "sake</w>": 3370, "pigs</w>": 3371, "pleasures</w>": 3372, "char": 3373, "indo": 3374, "commission</w>": 3375, "tuniti": 3376, "dinner</w>": 3377, "s_</w>": 3378, "ancy</w>": 3379, "cation</w>": 3380, "quitous</w>": 3381, "an</w>": 3382, "Not</w>": 3383, "servant</w>": 3384, "NIND</w>": 3385, "matrimoni": 3386, "fish</w>": 3387, "lustre</w>": 3388, "at_</w>": 3389, "tair": 3390, "reception</w>": 3391, "completely</w>": 3392, "book</w>": 3393, "whist</w>": 3394, "abi": 3395, "impartiality</w>": 3396, "paler</w>": 3397, "retali": 3398, "hope</w>": 3399, "trav": 3400, "ad": 3401, "is</w>": 3402, "shortly</w>": 3403, "perceived</w>": 3404, "complimented</w>": 3405, "illiterate</w>": 3406, "thing": 3407, "vent</w>": 3408, "behalf</w>": 3409, "wise</w>": 3410, "er</w>": 3411, "sâ</w>": 3412, "allusion</w>": 3413, "invent</w>": 3414, "ls</w>": 3415, "formers</w>": 3416, "_them_</w>": 3417, "clearly</w>": 3418, "R": 3419, "add</w>": 3420, "re</w>": 3421, "gratefully</w>": 3422, "cro": 3423, "unlike</w>": 3424, "v": 3425, "cautious</w>": 3426, "repeatedly</w>": 3427, "resolving</w>": 3428, "missed</w>": 3429, "spired</w>": 3430, "Does</w>": 3431, "alled</w>": 3432, "thinking</w>": 3433, "absent</w>": 3434, "violently</w>": 3435, "repeat</w>": 3436, "he": 3437, "birth</w>": 3438, "whims</w>": 3439, "cuses</w>": 3440, "wine</w>": 3441, "repor": 3442, "s": 3443, "brought</w>": 3444, "England</w>": 3445, "promising</w>": 3446, "gitives</w>": 3447, "ency</w>": 3448, "hopes</w>": 3449, "ably</w>": 3450, "intended</w>": 3451, "mpl": 3452, "cest</w>": 3453, "so": 3454, "turing</w>": 3455, "LL": 3456, "sure</w>": 3457, "hints</w>": 3458, "shoo": 3459, "significant</w>": 3460, "proved</w>": 3461, "par": 3462, "gravel</w>": 3463, "affections</w>": 3464, "let</w>": 3465, "elopement</w>": 3466, "detestable</w>": 3467, "tempor": 3468, "Engaged</w>": 3469, "militia</w>": 3470, "loss</w>": 3471, "adictions</w>": 3472, "creature</w>": 3473, "Ne": 3474, "occasion": 3475, "repu": 3476, "encounter</w>": 3477, "obeyed</w>": 3478, "warrant</w>": 3479, "acknowledgments</w>": 3480, "obe": 3481, "black</w>": 3482, "tranquillity</w>": 3483, "impatient</w>": 3484, "sentinel</w>": 3485, "gent</w>": 3486, "raptures</w>": 3487, "perhaps</w>": 3488, "dances</w>": 3489, "glove</w>": 3490, "attitu": 3491, "jure</w>": 3492, "amazing</w>": 3493, "guine</w>": 3494, "confirms</w>": 3495, "ive</w>": 3496, "fall</w>": 3497, "te": 3498, "press</w>": 3499, "suffici": 3500, "housemaid</w>": 3501, "deserves</w>": 3502, "praise</w>": 3503, "gling</w>": 3504, "hire</w>": 3505, "assured</w>": 3506, "entailing</w>": 3507, "dispo": 3508, "sher</w>": 3509, "charity</w>": 3510, "cousin</w>": 3511, "retro": 3512, "conjecturing</w>": 3513, "tober": 3514, "relieved</w>": 3515, "ning</w>": 3516, "gallantry</w>": 3517, "wherever</w>": 3518, "miles</w>": 3519, "whilst</w>": 3520, "exclamation</w>": 3521, "late</w>": 3522, "ssi": 3523, "gentlemenâ</w>": 3524, "upper": 3525, "W": 3526, "san": 3527, "ancles</w>": 3528, "kindness</w>": 3529, "rom": 3530, "flows</w>": 3531, "soun": 3532, "So</w>": 3533, "afford</w>": 3534, "w</w>": 3535, "meanest</w>": 3536, "Recovering</w>": 3537, "flu": 3538, "confusion</w>": 3539, "sermons</w>": 3540, "Anne</w>": 3541, "arti": 3542, "recom": 3543, "fight</w>": 3544, "recovering</w>": 3545, "safe</w>": 3546, "unlucky</w>": 3547, "Neither</w>": 3548, "decoru": 3549, "impetu": 3550, "excellence</w>": 3551, "ordination</w>": 3552, "grouped</w>": 3553, "rising</w>": 3554, "Charlotte</w>": 3555, "gerate</w>": 3556, "si": 3557, "nine</w>": 3558, "boun": 3559, "desiring</w>": 3560, "advise</w>": 3561, "chi": 3562, "AM</w>": 3563, "move</w>": 3564, "unpardonable</w>": 3565, "eds</w>": 3566, "restraint</w>": 3567, "caught</w>": 3568, "te</w>": 3569, "connected</w>": 3570, "tr": 3571, "deprived</w>": 3572, "disappointment</w>": 3573, "tithes</w>": 3574, "mentioning</w>": 3575, "believe</w>": 3576, "act</w>": 3577, "correspondence</w>": 3578, "decided</w>": 3579, "receipt</w>": 3580, "If</w>": 3581, "disgraceful</w>": 3582, "Certainly</w>": 3583, "pertur": 3584, "together</w>": 3585, "aged</w>": 3586, "disrespect</w>": 3587, "regain</w>": 3588, "attached</w>": 3589, "stop</w>": 3590, "les</w>": 3591, "stery</w>": 3592, "conver": 3593, "thereupon</w>": 3594, "is_</w>": 3595, "springs</w>": 3596, "revered</w>": 3597, "stre": 3598, "correspon": 3599, "god": 3600, "disinclination</w>": 3601, "unable</w>": 3602, "shows</w>": 3603, "shru": 3604, "infamy</w>": 3605, "aside</w>": 3606, "Pe": 3607, "Ah</w>": 3608, "incen": 3609, "elegant</w>": 3610, "Great</w>": 3611, "continuance</w>": 3612, "entering</w>": 3613, "assemblies</w>": 3614, "first</w>": 3615, "discredit</w>": 3616, "headache</w>": 3617, "Carolineâ</w>": 3618, "ture</w>": 3619, "remarkably</w>": 3620, "seriously</w>": 3621, "under": 3622, "private</w>": 3623, "owards</w>": 3624, "third</w>": 3625, "faces</w>": 3626, "complaisant</w>": 3627, "degree</w>": 3628, "agreed</w>": 3629, "ready</w>": 3630, "original</w>": 3631, "weight</w>": 3632, "looked</w>": 3633, "venturing</w>": 3634, "anew</w>": 3635, "mind</w>": 3636, "receive</w>": 3637, "guish</w>": 3638, "Elizabethâ</w>": 3639, "closest</w>": 3640, "nedly</w>": 3641, "hourâ</w>": 3642, "shy": 3643, "summoned</w>": 3644, "aspire</w>": 3645, "representation</w>": 3646, "dered</w>": 3647, "fallen</w>": 3648, "sigh": 3649, "ssence</w>": 3650, "reduced</w>": 3651, "resigning</w>": 3652, "possi": 3653, "examining</w>": 3654, "asti": 3655, "neyed</w>": 3656, "consisted</w>": 3657, "oners</w>": 3658, "wanting</w>": 3659, "tful</w>": 3660, "weather</w>": 3661, "stairs</w>": 3662, "ev": 3663, "haughty</w>": 3664, "singular</w>": 3665, "honourable</w>": 3666, "suppli": 3667, "wearying</w>": 3668, "civilly</w>": 3669, "tit": 3670, "faul": 3671, "retaining": 3672, "_some_</w>": 3673, "aid</w>": 3674, "path</w>": 3675, "mp": 3676, "carriage</w>": 3677, "hinted</w>": 3678, "answerable</w>": 3679, "taking</w>": 3680, "please</w>": 3681, "despon": 3682, "Ob": 3683, "fused</w>": 3684, "asured</w>": 3685, "success": 3686, "dreaded</w>": 3687, "star": 3688, "ail</w>": 3689, "faithful</w>": 3690, "angry</w>": 3691, "do</w>": 3692, "fearful</w>": 3693, "chest": 3694, "pic": 3695, "tonous</w>": 3696, "emo": 3697, "remaining</w>": 3698, "ched</w>": 3699, "nonsense</w>": 3700, "tend</w>": 3701, "ary</w>": 3702, "herited</w>": 3703, "event</w>": 3704, "repent</w>": 3705, "enjoyment</w>": 3706, "becomes</w>": 3707, "moments</w>": 3708, "two</w>": 3709, "ath</w>": 3710, "acancy</w>": 3711, "Is</w>": 3712, "flowed</w>": 3713, "happened</w>": 3714, "shame</w>": 3715, "hus</w>": 3716, "vers</w>": 3717, "nice</w>": 3718, "head</w>": 3719, "wilfully</w>": 3720, "careful</w>": 3721, "deri": 3722, "ay": 3723, "suspend</w>": 3724, "pretend</w>": 3725, "wrote</w>": 3726, "ear</w>": 3727, "ball</w>": 3728, "avowed</w>": 3729, "week</w>": 3730, "king</w>": 3731, "convenience</w>": 3732, "staying</w>": 3733, "antity</w>": 3734, "appease</w>": 3735, "judged</w>": 3736, "negligence</w>": 3737, "accusations</w>": 3738, "dining</w>": 3739, "few</w>": 3740, "fris": 3741, "oppose</w>": 3742, "apparel</w>": 3743, "ignorant</w>": 3744, "XL": 3745, "voice</w>": 3746, "gest</w>": 3747, "domesti": 3748, "symptom</w>": 3749, "tel</w>": 3750, "ass": 3751, "understand</w>": 3752, "independent</w>": 3753, "misle": 3754, "xed</w>": 3755, "cl": 3756, "disguise</w>": 3757, "cry</w>": 3758, "plexity</w>": 3759, "tune</w>": 3760, "impu": 3761, "order</w>": 3762, "induced</w>": 3763, "brown</w>": 3764, "cherished</w>": 3765, "established</w>": 3766, "last</w>": 3767, "W</w>": 3768, "br": 3769, "ordered</w>": 3770, "que</w>": 3771, "compose</w>": 3772, "knows</w>": 3773, "lament</w>": 3774, "steady</w>": 3775, "fon": 3776, "atagems</w>": 3777, "revenge</w>": 3778, "secure</w>": 3779, "you": 3780, "confirm</w>": 3781, "fifteen</w>": 3782, "expense</w>": 3783, "Could</w>": 3784, "creditably</w>": 3785, "vertised</w>": 3786, "county</w>": 3787, "does</w>": 3788, "shar": 3789, "Chur": 3790, "purchase</w>": 3791, "astonished</w>": 3792, "chagrin</w>": 3793, "sketch</w>": 3794, "anticip": 3795, "ke</w>": 3796, "come</w>": 3797, "Hur": 3798, "ful": 3799, "foo": 3800, "cost</w>": 3801, "consulting</w>": 3802, "jealousy</w>": 3803, "post</w>": 3804, "fore": 3805, "waiting</w>": 3806, "danger</w>": 3807, "ar": 3808, "remin": 3809, "liberti": 3810, "accept</w>": 3811, "dent": 3812, "look</w>": 3813, "novelty</w>": 3814, "joy": 3815, "expressions</w>": 3816, "forcibly</w>": 3817, "worked</w>": 3818, "gone</w>": 3819, "De</w>": 3820, "considering</w>": 3821, "gues</w>": 3822, "totally</w>": 3823, "melancholy</w>": 3824, "wishing</w>": 3825, "arisen</w>": 3826, "dignity</w>": 3827, "dering</w>": 3828, "after</w>": 3829, "entrance</w>": 3830, "ston</w>": 3831, "prover": 3832, "circum": 3833, "5": 3834, "books</w>": 3835, "Miss</w>": 3836, "sincere</w>": 3837, "qued</w>": 3838, "inclu": 3839, "bu": 3840, "liti": 3841, "informality</w>": 3842, "18": 3843, "party</w>": 3844, "ality</w>": 3845, "thus</w>": 3846, "P": 3847, "regard</w>": 3848, "Hurst</w>": 3849, "insuffer": 3850, "attered</w>": 3851, "intention": 3852, "throughout</w>": 3853, "flexi": 3854, "repressed</w>": 3855, "repelled</w>": 3856, "above</w>": 3857, "particular": 3858, "purchased</w>": 3859, "door</w>": 3860, "gentlemanâ</w>": 3861, "am</w>": 3862, "f</w>": 3863, "sub": 3864, "consol": 3865, "consistent</w>": 3866, "Tuesday</w>": 3867, "following</w>": 3868, "efforts</w>": 3869, "regiment</w>": 3870, "bri": 3871, "usually</w>": 3872, "favourites</w>": 3873, "scrutin": 3874, "impatience</w>": 3875, "stentatious</w>": 3876, "sely</w>": 3877, "sorrow</w>": 3878, "spring</w>": 3879, "un": 3880, "rich</w>": 3881, "humili": 3882, "leaves</w>": 3883, "Compared</w>": 3884, "Catherineâ</w>": 3885, "forward</w>": 3886, "disinterestedness</w>": 3887, "trout</w>": 3888, "Par": 3889, "prodigiously</w>": 3890, "match</w>": 3891, "insufficient</w>": 3892, ";</w>": 3893, "tive</w>": 3894, "courtesy</w>": 3895, "attri": 3896, "bited</w>": 3897, "three</w>": 3898, "defection</w>": 3899, "xi": 3900, "prob": 3901, "ample</w>": 3902, "stood</w>": 3903, "Forster</w>": 3904, "bestowing</w>": 3905, "ashamed</w>": 3906, "Chat": 3907, "forced</w>": 3908, "regimentals</w>": 3909, "month</w>": 3910, "sible</w>": 3911, "out</w>": 3912, "establish</w>": 3913, "second</w>": 3914, "encouraging</w>": 3915, "challenge</w>": 3916, "aded</w>": 3917, "description</w>": 3918, "powering</w>": 3919, "feelingly</w>": 3920, "bishop</w>": 3921, "a": 3922, "dismission</w>": 3923, "gs</w>": 3924, "year</w>": 3925, "solicitude</w>": 3926, "consoling</w>": 3927, "feren": 3928, "perpetually</w>": 3929, "uncommonly</w>": 3930, "origin": 3931, "mildly</w>": 3932, "pursuit</w>": 3933, "added</w>": 3934, "authority</w>": 3935, "as</w>": 3936, "before</w>": 3937, "recollection</w>": 3938, "ferings</w>": 3939, "keeps</w>": 3940, "elu": 3941, "sson</w>": 3942, "congratulations</w>": 3943, "delay</w>": 3944, "yawn</w>": 3945, "adds</w>": 3946, "hasty</w>": 3947, "mingling</w>": 3948, "apologize</w>": 3949, "</w>": 3950, "housem": 3951, "worthy</w>": 3952, "rel": 3953, "parted</w>": 3954, "walker</w>": 3955, "about</w>": 3956, "eld</w>": 3957, "sacrificed</w>": 3958, "suspected</w>": 3959, "rule</w>": 3960, "glow</w>": 3961, "dled</w>": 3962, "therefore</w>": 3963, "intimid": 3964, "crown</w>": 3965, "further</w>": 3966, "bringing</w>": 3967, "nephew</w>": 3968, "charm</w>": 3969, "exceed</w>": 3970, "risen</w>": 3971, "cause</w>": 3972, "refrain</w>": 3973, "welled</w>": 3974, "watch</w>": 3975, "service": 3976, "judgment</w>": 3977, "broad</w>": 3978, "confidently</w>": 3979, "en</w>": 3980, "relieve</w>": 3981, "pass</w>": 3982, "frequent</w>": 3983, "sci": 3984, "acquire</w>": 3985, "care</w>": 3986, "whither</w>": 3987, "deficient</w>": 3988, "coun": 3989, "prevailed</w>": 3990, "comprised</w>": 3991, "reconciling</w>": 3992, "wanted</w>": 3993, "congratul": 3994, "authoriz": 3995, "noti": 3996, "foundation</w>": 3997, "teriz": 3998, "aware</w>": 3999, "overtures</w>": 4000, "dre": 4001, "favour</w>": 4002, "ards</w>": 4003, "disgrace</w>": 4004, "Kitt": 4005, "bo": 4006, "altern": 4007, "into</w>": 4008, "indulged</w>": 4009, "unconcern</w>": 4010, "thoughtless</w>": 4011, "pour</w>": 4012, "wish": 4013, "renewal</w>": 4014, "tionable</w>": 4015, "war": 4016, "anyone</w>": 4017, "rested</w>": 4018, "val</w>": 4019, "However</w>": 4020, "mons</w>": 4021, "ware": 4022, "river</w>": 4023, "figure</w>": 4024, "worth": 4025, "owed</w>": 4026, "bride</w>": 4027, "end</w>": 4028, "with</w>": 4029, "barously</w>": 4030, "lt</w>": 4031, "forth</w>": 4032, "canv": 4033, "proportion</w>": 4034, "robor": 4035, "continue</w>": 4036, "returned</w>": 4037, "could</w>": 4038, "mess": 4039, "speeches</w>": 4040, "disadvantage</w>": 4041, "Gret": 4042, "deter</w>": 4043, "included</w>": 4044, "studied</w>": 4045, "well</w>": 4046, "mounting</w>": 4047, "earnest</w>": 4048, "dwell</w>": 4049, "ssation</w>": 4050, "frigh": 4051, "no": 4052, "ber": 4053, "aught</w>": 4054, "eclip": 4055, "_m": 4056, "hours</w>": 4057, "Ay</w>": 4058, "declared</w>": 4059, "drin": 4060, "though</w>": 4061, "Two</w>": 4062, "The": 4063, "memory</w>": 4064, "dancing</w>": 4065, "Lucas</w>": 4066, "youth": 4067, "cun": 4068, "lamentations</w>": 4069, "gaieties</w>": 4070, "genius</w>": 4071, "dose</w>": 4072, "ned</w>": 4073, "object</w>": 4074, "ler</w>": 4075, "wealth</w>": 4076, "dent</w>": 4077, "expli": 4078, "approaching</w>": 4079, "wearisome</w>": 4080, "express</w>": 4081, "careless</w>": 4082, "Y": 4083, "attendance</w>": 4084, "ney</w>": 4085, "officersâ</w>": 4086, "avoided</w>": 4087, "hand</w>": 4088, "stables</w>": 4089, "spoken</w>": 4090, "advice</w>": 4091, "ill</w>": 4092, "peculiar</w>": 4093, "requested</w>": 4094, "salutation</w>": 4095, "gave</w>": 4096, "unnecessary</w>": 4097, "lord</w>": 4098, "blemish</w>": 4099, "particulars</w>": 4100, "gloom</w>": 4101, "Pre": 4102, "medi": 4103, "etc</w>": 4104, "How</w>": 4105, "always</w>": 4106, "firm</w>": 4107, "Sir</w>": 4108, "signify</w>": 4109, "er": 4110, "coincide</w>": 4111, "often</w>": 4112, "austerity</w>": 4113, "chil": 4114, "persuaded</w>": 4115, "fancy</w>": 4116, "sentiment</w>": 4117, "app": 4118, "interrup": 4119, "qu": 4120, "new</w>": 4121, "expo": 4122, "Detection</w>": 4123, "gulars</w>": 4124, "ten</w>": 4125, "oo": 4126, "criti": 4127, "supplied</w>": 4128, "engaged</w>": 4129, "intimacy</w>": 4130, "repine</w>": 4131, "stinc": 4132, "e": 4133, "est</w>": 4134, "ber</w>": 4135, "]</w>": 4136, "Be</w>": 4137, "ns</w>": 4138, "disliking</w>": 4139, "bowing</w>": 4140, "tour</w>": 4141, "severe</w>": 4142, "signal</w>": 4143, "expression</w>": 4144, "settling</w>": 4145, "q": 4146, "Certain</w>": 4147, "E": 4148, "neighbourhood</w>": 4149, "smiling</w>": 4150, "alacrity</w>": 4151, "_youn": 4152, "petrified</w>": 4153, "prepare</w>": 4154, "eyes</w>": 4155, "hitherto</w>": 4156, "lo": 4157, "respect</w>": 4158, "desig": 4159, "excess</w>": 4160, "dispen": 4161, "graci": 4162, "embarrassment</w>": 4163, "abide</w>": 4164, "telling</w>": 4165, "killed</w>": 4166, "large</w>": 4167, "depend</w>": 4168, "Chapter</w>": 4169, "rationally</w>": 4170, "appearan": 4171, "get</w>": 4172, "praises</w>": 4173, "sensation</w>": 4174, "reference</w>": 4175, "assistant</w>": 4176, "unfolded</w>": 4177, "flow</w>": 4178, "colour</w>": 4179, "offend</w>": 4180, "lad</w>": 4181, "fear</w>": 4182, "tenant</w>": 4183, "*</w>": 4184, "excep": 4185, "tent</w>": 4186, "indul": 4187, "communicated</w>": 4188, "mistake</w>": 4189, "eri": 4190, "stu": 4191, "restless</w>": 4192, "gentlemen</w>": 4193, "pursuits</w>": 4194, "gown</w>": 4195, "confessed</w>": 4196, "unluckily</w>": 4197, "triumphantly</w>": 4198, "passed</w>": 4199, "unfortunate</w>": 4200, "afed</w>": 4201, "guess</w>": 4202, "O": 4203, "hard</w>": 4204, "breast</w>": 4205, "repining</w>": 4206, "watering</w>": 4207, "remembrance</w>": 4208, "arly</w>": 4209, "nephew": 4210, "lively</w>": 4211, "d</w>": 4212, "recovered</w>": 4213, "tains</w>": 4214, "motive</w>": 4215, "falsely</w>": 4216, "detection</w>": 4217, "smanâ</w>": 4218, "hood</w>": 4219, "recommendations</w>": 4220, "rand</w>": 4221, "pati": 4222, "twice</w>": 4223, "disappoin": 4224, "flowing</w>": 4225, "Then</w>": 4226, "gu": 4227, "fastened</w>": 4228, "suppositions</w>": 4229, "removal</w>": 4230, "mani": 4231, "discovery</w>": 4232, "conditional</w>": 4233, "arranged</w>": 4234, "dener</w>": 4235, "anim": 4236, "insupportable</w>": 4237, "aun": 4238, "examined</w>": 4239, "quickly</w>": 4240, "at": 4241, "awe</w>": 4242, "fed</w>": 4243, "duti": 4244, "dull</w>": 4245, "places</w>": 4246, "ame": 4247, "capital</w>": 4248, "_The": 4249, "expedite</w>": 4250, "vis</w>": 4251, "business</w>": 4252, "observation</w>": 4253, "pt</w>": 4254, "Nicho": 4255, "allowed</w>": 4256, "falling</w>": 4257, "eves</w>": 4258, "Those</w>": 4259, "outâ</w>": 4260, "maintained</w>": 4261, "decision</w>": 4262, "accusing</w>": 4263, "_now_</w>": 4264, "contempt</w>": 4265, "information</w>": 4266, "certain</w>": 4267, "gst</w>": 4268, "pleasanter</w>": 4269, "cold</w>": 4270, "gain": 4271, "secrecy</w>": 4272, "smiled</w>": 4273, "invitations</w>": 4274, "amends</w>": 4275, "died</w>": 4276, "eligi": 4277, "complexion</w>": 4278, "favourite": 4279, "pretended</w>": 4280, "appeared</w>": 4281, "survive</w>": 4282, "improves</w>": 4283, "vol": 4284, "bent</w>": 4285, "CH": 4286, "feelings</w>": 4287, "mination</w>": 4288, "WILLIAM</w>": 4289, "remedy</w>": 4290, "situated</w>": 4291, "entered</w>": 4292, "regained</w>": 4293, "tear</w>": 4294, "headed</w>": 4295, "foot</w>": 4296, "severing</w>": 4297, "shor": 4298, "contentment</w>": 4299, "advan": 4300, "le": 4301, "spection</w>": 4302, "taller</w>": 4303, "interest_</w>": 4304, "vexing</w>": 4305, "respecting</w>": 4306, "changing</w>": 4307, "spars</w>": 4308, "relief</w>": 4309, "sided</w>": 4310, "thence</w>": 4311, "fur": 4312, "doubly</w>": 4313, "bowed</w>": 4314, "perform</w>": 4315, "arising</w>": 4316, "Kent</w>": 4317, "cele": 4318, "same</w>": 4319, "u": 4320, "dri": 4321, "resist</w>": 4322, "song</w>": 4323, "Yes</w>": 4324, "rather</w>": 4325, "across</w>": 4326, "northern</w>": 4327, "relate</w>": 4328, "neighbouring</w>": 4329, "isance</w>": 4330, "wondering</w>": 4331, "trun": 4332, "cutting</w>": 4333, "uncles</w>": 4334, "form</w>": 4335, "wice</w>": 4336, "resentfully</w>": 4337, "married</w>": 4338, "talent</w>": 4339, "involuntarily</w>": 4340, "enumeration</w>": 4341, "dispirited</w>": 4342, "ssible</w>": 4343, "lty</w>": 4344, "benefit</w>": 4345, "year": 4346, "possible</w>": 4347, "tain</w>": 4348, "profusion</w>": 4349, "petition</w>": 4350, "dismay</w>": 4351, "ch</w>": 4352, "road</w>": 4353, "circumstance</w>": 4354, "gravity</w>": 4355, "CO": 4356, "content</w>": 4357, "scope</w>": 4358, "see</w>": 4359, "notion</w>": 4360, "edingly</w>": 4361, "consideration</w>": 4362, "_T": 4363, "je": 4364, "tured</w>": 4365, "down</w>": 4366, "luck": 4367, "including</w>": 4368, "talents</w>": 4369, "contrived</w>": 4370, "net</w>": 4371, "inter</w>": 4372, "Park</w>": 4373, "tinguished</w>": 4374, "bad</w>": 4375, "lucky</w>": 4376, "punc": 4377, "negligent</w>": 4378, "r": 4379, "ar</w>": 4380, "past</w>": 4381, "concluded</w>": 4382, "amply</w>": 4383, "cles</w>": 4384, "denied</w>": 4385, "partiality</w>": 4386, "Lambton</w>": 4387, "prompt</w>": 4388, "pair</w>": 4389, "ster": 4390, "rejected</w>": 4391, "continually</w>": 4392, "blasted</w>": 4393, "Rendered</w>": 4394, "property</w>": 4395, "thorough</w>": 4396, "uncompani": 4397, "silently</w>": 4398, "taste</w>": 4399, "dine</w>": 4400, "Such</w>": 4401, "protesting</w>": 4402, "ker</w>": 4403, "Mrs</w>": 4404, "alance</w>": 4405, "thin</w>": 4406, "varying</w>": 4407, "mon": 4408, "presentation</w>": 4409, "alarmed</w>": 4410, "visits</w>": 4411, "observer</w>": 4412, "admission</w>": 4413, "secret</w>": 4414, "grievous</w>": 4415, "plague</w>": 4416, "societies</w>": 4417, "prompted</w>": 4418, "repro": 4419, "vul": 4420, "want</w>": 4421, "Sunday</w>": 4422, "occasion</w>": 4423, "lodges</w>": 4424, "ans</w>": 4425, "suddenness</w>": 4426, "i": 4427, "abusing</w>": 4428, "measure</w>": 4429, "discharged</w>": 4430, "ren": 4431, "mented</w>": 4432, "striving</w>": 4433, "po": 4434, "finishing</w>": 4435, "smen</w>": 4436, "poorly</w>": 4437, "ains</w>": 4438, "universal</w>": 4439, "allowan": 4440, "certainty</w>": 4441, "powerful</w>": 4442, "demean</w>": 4443, "ously</w>": 4444, "meets</w>": 4445, "scruples</w>": 4446, "lest</w>": 4447, "intending</w>": 4448, "remedi": 4449, "nomin": 4450, "invol": 4451, "dges</w>": 4452, "defer</w>": 4453, "ou": 4454, "err</w>": 4455, "round</w>": 4456, "deran": 4457, "undertaken</w>": 4458, "siz": 4459, "courted</w>": 4460, "born": 4461, "coming</w>": 4462, "evously</w>": 4463, "idle</w>": 4464, "ritish</w>": 4465, "runs</w>": 4466, "readily</w>": 4467, "dimen": 4468, "trade</w>": 4469, "de": 4470, "middle</w>": 4471, "parish</w>": 4472, "kill</w>": 4473, "orn": 4474, "im": 4475, "ran</w>": 4476, "Prob": 4477, "injuri": 4478, "en": 4479, "gentleman</w>": 4480, "monthly</w>": 4481, "gle</w>": 4482, "girl</w>": 4483, "pack</w>": 4484, "declares</w>": 4485, "Was</w>": 4486, "grew</w>": 4487, "_Your": 4488, "_all_</w>": 4489, "sloping</w>": 4490, "fairest</w>": 4491, "respected</w>": 4492, "refusal</w>": 4493, "pool</w>": 4494, "borne</w>": 4495, "gri": 4496, "symptoms</w>": 4497, "picture</w>": 4498, "imitated</w>": 4499, "proposed</w>": 4500, "ones</w>": 4501, "acceptance</w>": 4502, "integrity</w>": 4503, "glimp": 4504, "stretch</w>": 4505, "estimation</w>": 4506, "atement</w>": 4507, "abundantly</w>": 4508, "Had</w>": 4509, "stri": 4510, "cheating</w>": 4511, "exert</w>": 4512, "nt</w>": 4513, "defined</w>": 4514, "company</w>": 4515, "service</w>": 4516, "What</w>": 4517, "gowns</w>": 4518, "complimenting</w>": 4519, "advantage</w>": 4520, "pounds</w>": 4521, "narrow": 4522, "st</w>": 4523, "pitiable</w>": 4524, "stands</w>": 4525, "allurements</w>": 4526, "che</w>": 4527, "or": 4528, "using</w>": 4529, "the": 4530, "sisting</w>": 4531, "admirer</w>": 4532, "despatched</w>": 4533, "liking</w>": 4534, "fire</w>": 4535, "what_</w>": 4536, "freedom</w>": 4537, "intelligence</w>": 4538, "gency</w>": 4539, "female</w>": 4540, "fying</w>": 4541, "convince</w>": 4542, "sister": 4543, "flying</w>": 4544, "anse</w>": 4545, "eating</w>": 4546, "spoi": 4547, "postscript</w>": 4548, "mur": 4549, "anecdote</w>": 4550, "marriage</w>": 4551, "asty</w>": 4552, "toler": 4553, "dings</w>": 4554, "b": 4555, "_here_</w>": 4556, "tender</w>": 4557, "new": 4558, "effusion</w>": 4559, "repose</w>": 4560, "culated</w>": 4561, "dred</w>": 4562, "_then": 4563, "enumerating</w>": 4564, "family</w>": 4565, "misconduct</w>": 4566, "another": 4567, "ap": 4568, "inclin": 4569, "sunk</w>": 4570, "amester</w>": 4571, "alternative</w>": 4572, "freely</w>": 4573, "employments</w>": 4574, "miss</w>": 4575, "gentleness</w>": 4576, "ake</w>": 4577, "six": 4578, "accounting</w>": 4579, "characters</w>": 4580, "dishonourable</w>": 4581, "reach</w>": 4582, "startled</w>": 4583, "placed</w>": 4584, "amounting</w>": 4585, "The</w>": 4586, "spreading</w>": 4587, "vows</w>": 4588, "lof": 4589, "reconci": 4590, "Come</w>": 4591, "planned</w>": 4592, "advance</w>": 4593, "Allen</w>": 4594, "equally</w>": 4595, "diversion</w>": 4596, "assure</w>": 4597, "eyâ</w>": 4598, "seni": 4599, "syllable</w>": 4600, "lead</w>": 4601, "affectionate</w>": 4602, "proprietor</w>": 4603, "regretted</w>": 4604, "cure</w>": 4605, "agon": 4606, "punch</w>": 4607, "He_</w>": 4608, "promo": 4609, "Collinses</w>": 4610, "wood</w>": 4611, "ensu": 4612, "arm</w>": 4613, "produce</w>": 4614, "ament</w>": 4615, "favoured</w>": 4616, "ris</w>": 4617, "tec": 4618, "poor</w>": 4619, "taining</w>": 4620, "conceal</w>": 4621, "curious</w>": 4622, "unlikely</w>": 4623, "condemn</w>": 4624, "explained</w>": 4625, "keenest</w>": 4626, "receiving</w>": 4627, "copse</w>": 4628, "collected</w>": 4629, "designed</w>": 4630, "officious</w>": 4631, "marrying</w>": 4632, "minutes</w>": 4633, "saw</w>": 4634, "pressing</w>": 4635, "impertinence</w>": 4636, "eti": 4637, "offended</w>": 4638, "presence</w>": 4639, "imaginary</w>": 4640, "friendship</w>": 4641, "our": 4642, "drew</w>": 4643, "speaking</w>": 4644, "den": 4645, "why</w>": 4646, "seat</w>": 4647, "scheming</w>": 4648, "preparations</w>": 4649, "countenance</w>": 4650, "wild</w>": 4651, "attempt</w>": 4652, "hating</w>": 4653, "bly</w>": 4654, "make</w>": 4655, "housekeeping</w>": 4656, "reply</w>": 4657, "blessing</w>": 4658, "recollect</w>": 4659, "brow</w>": 4660, "prive</w>": 4661, "wide</w>": 4662, "indulgence</w>": 4663, "cordingly</w>": 4664, "gui": 4665, "merits</w>": 4666, "meaning</w>": 4667, "oh</w>": 4668, "render</w>": 4669, "pardon</w>": 4670, "belon": 4671, "mother</w>": 4672, "laid</w>": 4673, "afternoon</w>": 4674, "was_</w>": 4675, "inex": 4676, "trepi": 4677, "detailed</w>": 4678, "style</w>": 4679, "Good</w>": 4680, "fancying</w>": 4681, "desirable</w>": 4682, "house</w>": 4683, "eter</w>": 4684, "congratulate</w>": 4685, "pray</w>": 4686, "dared</w>": 4687, "grandeur</w>": 4688, "sed": 4689, "principally</w>": 4690, "instruction</w>": 4691, "thrown</w>": 4692, "De": 4693, "welcomed</w>": 4694, "four</w>": 4695, "tioned</w>": 4696, "behaved</w>": 4697, "triumph</w>": 4698, "allo": 4699, "Darc": 4700, "memories</w>": 4701, "search</w>": 4702, "Wickhamâ</w>": 4703, "ponies</w>": 4704, "rid</w>": 4705, "stated</w>": 4706, "ref": 4707, "activity</w>": 4708, "seiz": 4709, "barely</w>": 4710, "tual</w>": 4711, "fulness</w>": 4712, "expre": 4713, "fuss</w>": 4714, "manor</w>": 4715, "cares</w>": 4716, "lips</w>": 4717, "incapable</w>": 4718, "inous</w>": 4719, "unwillingness</w>": 4720, "Ever</w>": 4721, "claims</w>": 4722, "dirt</w>": 4723, "que": 4724, "forgive</w>": 4725, "edy</w>": 4726, "hardened</w>": 4727, "untit": 4728, "comply</w>": 4729, "st_</w>": 4730, "irs</w>": 4731, "chair</w>": 4732, "return</w>": 4733, "hu": 4734, "separation</w>": 4735, "herent</w>": 4736, "inoffensive</w>": 4737, "inducement</w>": 4738, "alling</w>": 4739, "Oh</w>": 4740, "predomin": 4741, "hack</w>": 4742, "chooses</w>": 4743, "intercourse</w>": 4744, "ms</w>": 4745, "individu": 4746, "half</w>": 4747, "spires</w>": 4748, "some</w>": 4749, "isanceâ</w>": 4750, "usage</w>": 4751, "neither</w>": 4752, "Within</w>": 4753, "CO</w>": 4754, "compatible</w>": 4755, "complaints</w>": 4756, "ages</w>": 4757, "sex</w>": 4758, "sel": 4759, "disappointed</w>": 4760, "worn</w>": 4761, "stay</w>": 4762, "hurrying</w>": 4763, "brother": 4764, "remain</w>": 4765, "mistook</w>": 4766, "fate</w>": 4767, "cely</w>": 4768, "deny</w>": 4769, "estimable</w>": 4770, "nonsensical</w>": 4771, "nigh": 4772, "fec": 4773, "stays</w>": 4774, "balls</w>": 4775, "gloried</w>": 4776, "dity</w>": 4777, "hered</w>": 4778, "discrimination</w>": 4779, "ade</w>": 4780, "tives</w>": 4781, "awo": 4782, "entreaties</w>": 4783, "gate</w>": 4784, "envelope</w>": 4785, "conversing</w>": 4786, "scrupled</w>": 4787, "result</w>": 4788, "cce": 4789, "mity</w>": 4790, "nothing</w>": 4791, "amented</w>": 4792, "gaiety</w>": 4793, "pursue</w>": 4794, "handsome</w>": 4795, "village</w>": 4796, "wi": 4797, "ecutors</w>": 4798, "uncle</w>": 4799, "mix</w>": 4800, "cruelly</w>": 4801, "misery</w>": 4802, "quetry</w>": 4803, "atings</w>": 4804, "troop</w>": 4805, "tan": 4806, "assidu": 4807, "because</w>": 4808, "weak": 4809, "shops</w>": 4810, "equal</w>": 4811, "tempers</w>": 4812, "respective</w>": 4813, "fice</w>": 4814, "invaluable</w>": 4815, "bold</w>": 4816, "willing</w>": 4817, "His</w>": 4818, "despising</w>": 4819, "ingratitude</w>": 4820, "ini": 4821, "lunche": 4822, "disconcerted</w>": 4823, "mono": 4824, "parts</w>": 4825, "running</w>": 4826, "formality</w>": 4827, "affinity</w>": 4828, "tation</w>": 4829, "distinguished</w>": 4830, "related</w>": 4831, "t</w>": 4832, "questioned</w>": 4833, "pronounced</w>": 4834, "Georgiana</w>": 4835, "politely</w>": 4836, "Five</w>": 4837, "minute</w>": 4838, "generous</w>": 4839, "definition</w>": 4840, "affection</w>": 4841, "knowing</w>": 4842, "Yet</w>": 4843, "establishment</w>": 4844, "discompose</w>": 4845, "insisted</w>": 4846, "fortune</w>": 4847, "cupi": 4848, "call</w>": 4849, "comes</w>": 4850, "dishes</w>": 4851, "things</w>": 4852, "ge</w>": 4853, "1894</w>": 4854, "fer": 4855, "asting</w>": 4856, "ger_</w>": 4857, "obstinate</w>": 4858, "essenti": 4859, "els</w>": 4860, "wifeâ</w>": 4861, "ety</w>": 4862, "mitted</w>": 4863, "abilities</w>": 4864, "material</w>": 4865, "something</w>": 4866, "hoping</w>": 4867, "ve</w>": 4868, "spur": 4869, "ach</w>": 4870, "hesitation</w>": 4871, "statement</w>": 4872, "far</w>": 4873, "fault</w>": 4874, "self</w>": 4875, "exceeding</w>": 4876, "probably</w>": 4877, "mis": 4878, "shillings</w>": 4879, "screen</w>": 4880, "produc": 4881, "U": 4882, "regular</w>": 4883, "May</w>": 4884, "general</w>": 4885, "rejoined</w>": 4886, "word</w>": 4887, "leading</w>": 4888, "remor": 4889, "seeking</w>": 4890, "minutesâ</w>": 4891, "ret": 4892, "sligh": 4893, "days</w>": 4894, "emer": 4895, "charmingly</w>": 4896, "intimation</w>": 4897, "pleasing</w>": 4898, "listening</w>": 4899, "rational</w>": 4900, "infliction</w>": 4901, "ascertaining</w>": 4902, "worthless</w>": 4903, "neglec": 4904, "jour": 4905, "pit": 4906, "Pride</w>": 4907, "interval</w>": 4908, "supported</w>": 4909, "tuned</w>": 4910, "alent</w>": 4911, "seven</w>": 4912, "forty</w>": 4913, "like</w>": 4914, "acting</w>": 4915, "ascertain</w>": 4916, "preserv": 4917, "proceeded</w>": 4918, "ear": 4919, "jealous</w>": 4920, "stitution</w>": 4921, "urgent</w>": 4922, "finish</w>": 4923, "Even</w>": 4924, "deferred</w>": 4925, "Gardiners</w>": 4926, "benefits</w>": 4927, "scenes</w>": 4928, "definite</w>": 4929, "clearing</w>": 4930, "feel": 4931, "Allowing</w>": 4932, "Clementâ</w>": 4933, "she</w>": 4934, "hearings</w>": 4935, "ves</w>": 4936, "copi": 4937, "concili": 4938, "lives</w>": 4939, "again</w>": 4940, "eyel": 4941, "formal</w>": 4942, "aiden</w>": 4943, "rejoice</w>": 4944, "borou": 4945, "perfectly</w>": 4946, "centi": 4947, "Pemberley</w>": 4948, "arrested</w>": 4949, "St</w>": 4950, "Per": 4951, "possessor</w>": 4952, "drove</w>": 4953, "omit</w>": 4954, "acity</w>": 4955, "openly</w>": 4956, "circulation</w>": 4957, "mischance</w>": 4958, "rite</w>": 4959, "proper</w>": 4960, "interesting</w>": 4961, "heard</w>": 4962, "relationsâ</w>": 4963, "possibly</w>": 4964, "rude</w>": 4965, "relating</w>": 4966, "writer</w>": 4967, "art</w>": 4968, "confess</w>": 4969, "Christmas</w>": 4970, "prejudices</w>": 4971, "Nobody</w>": 4972, "_his_</w>": 4973, "put</w>": 4974, "attained</w>": 4975, "ease</w>": 4976, "deno": 4977, "premises</w>": 4978, "chaperon_</w>": 4979, "cor": 4980, "engagement</w>": 4981, "offences</w>": 4982, "accents</w>": 4983, "land</w>": 4984, "opened</w>": 4985, "l": 4986, "complained</w>": 4987, "might</w>": 4988, "decease</w>": 4989, "cool</w>": 4990, "ought</w>": 4991, "prognostics</w>": 4992, "langu": 4993, "in</w>": 4994, "estim": 4995, "asperity</w>": 4996, "remem": 4997, "justifying</w>": 4998, "r</w>": 4999, "suppose</w>": 5000, "excessive</w>": 5001, "unreserved</w>": 5002, "disclaimed</w>": 5003, "Mary</w>": 5004, "discretion</w>": 5005, "hint</w>": 5006, "proceed</w>": 5007, "forgotten</w>": 5008, "pi": 5009, "courte": 5010, "south</w>": 5011, "talked</w>": 5012, "WI": 5013, "able</w>": 5014, "condition": 5015, "farm</w>": 5016, "pausing</w>": 5017, "bordered</w>": 5018, "utting</w>": 5019, "unsettled</w>": 5020, "acute</w>": 5021, "chaise</w>": 5022, "assisting</w>": 5023, "euten": 5024, "coar": 5025, "sequent</w>": 5026, "mentioned</w>": 5027, "Scotland</w>": 5028, "differently</w>": 5029, "applying</w>": 5030, "trying</w>": 5031, "quarters</w>": 5032, "rear</w>": 5033, "son_</w>": 5034, "comparatively</w>": 5035, "me</w>": 5036, "promote</w>": 5037, "su": 5038, "ameness</w>": 5039, "shed</w>": 5040, "impropri": 5041, "thank</w>": 5042, "Complied</w>": 5043, "fo": 5044, "upro": 5045, "creditable</w>": 5046, "cease</w>": 5047, "partner</w>": 5048, "penetration</w>": 5049, "fainter</w>": 5050, "brance</w>": 5051, "gallery</w>": 5052, "wan": 5053, "apprehension</w>": 5054, "repress</w>": 5055, "mem": 5056, "alike</w>": 5057, "wear</w>": 5058, "am": 5059, "hereafter</w>": 5060, "pru": 5061, "tor": 5062, "ran": 5063, "retri": 5064, "controverted</w>": 5065, "cul": 5066, "intend</w>": 5067, "discourses</w>": 5068, "qualifications</w>": 5069, "grateful</w>": 5070, "fe": 5071, "During</w>": 5072, "summons</w>": 5073, "bor": 5074, "tur": 5075, "unwilling</w>": 5076, "defence</w>": 5077, "severingly</w>": 5078, "sight</w>": 5079, "oppre": 5080, "formerly</w>": 5081, "makes</w>": 5082, "Hunsford</w>": 5083, "These</w>": 5084, "Newcastle</w>": 5085, "peri": 5086, "singing</w>": 5087, "wisely</w>": 5088, "thly</w>": 5089, "found": 5090, "slit</w>": 5091, "hopeless</w>": 5092, "stopping</w>": 5093, "Con": 5094, "minutely</w>": 5095, "senten": 5096, "regimentâ</w>": 5097, "couples</w>": 5098, "decidedly</w>": 5099, "ment</w>": 5100, "preten": 5101, "eldest</w>": 5102, "musi": 5103, "determining</w>": 5104, "Y</w>": 5105, "not</w>": 5106, "quette_</w>": 5107, "severest</w>": 5108, "speedi": 5109, "quietly</w>": 5110, "ited</w>": 5111, "peevish</w>": 5112, "boured</w>": 5113, "clu": 5114, "smallest</w>": 5115, "humoured</w>": 5116, "detest</w>": 5117, "offici": 5118, "cheer": 5119, "triumphant</w>": 5120, "whenever</w>": 5121, "vicinity</w>": 5122, "counter": 5123, "mingled</w>": 5124, "building</w>": 5125, "sorely</w>": 5126, "consent</w>": 5127, "ases</w>": 5128, "stir</w>": 5129, "aity</w>": 5130, "hatefully</w>": 5131, "qualities</w>": 5132, "prided</w>": 5133, "ordinary</w>": 5134, "admit</w>": 5135, "gradually</w>": 5136, "kingly</w>": 5137, "visitor</w>": 5138, "eight</w>": 5139, "ging</w>": 5140, "all</w>": 5141, "compliments</w>": 5142, "fond</w>": 5143, "asol</w>": 5144, "bui": 5145, "breakfast</w>": 5146, "Z": 5147, "forbid</w>": 5148, "thy</w>": 5149, "tane": 5150, "severed</w>": 5151, "_</w>": 5152, "sh": 5153, "eagerly</w>": 5154, "_mine_</w>": 5155, "appertain</w>": 5156, "rejection</w>": 5157, "Nex": 5158, "objec": 5159, "â</w>": 5160, "tall</w>": 5161, "tolerably</w>": 5162, "or</w>": 5163, "built</w>": 5164, "ater": 5165, "catch</w>": 5166, "relation</w>": 5167, "bust": 5168, "spread</w>": 5169, "Thursday</w>": 5170, "(</w>": 5171, "listener</w>": 5172, "humour</w>": 5173, "left</w>": 5174, "inevitably</w>": 5175, "rocks</w>": 5176, "desirous</w>": 5177, "failed</w>": 5178, "discontentedness</w>": 5179, "designing</w>": 5180, "edless</w>": 5181, "superintended</w>": 5182, "retain</w>": 5183, "fireplace</w>": 5184, "nobler</w>": 5185, "culate</w>": 5186, "dictating</w>": 5187, "instructions</w>": 5188, "enemi": 5189, "appli": 5190, "attr": 5191, "faith": 5192, "rejoicing</w>": 5193, "alterations</w>": 5194, "if</w>": 5195, "ges</w>": 5196, "station</w>": 5197, "impuriti": 5198, "will</w>": 5199, "these</w>": 5200, "derly</w>": 5201, "meeting</w>": 5202, "ash</w>": 5203, "everybody</w>": 5204, "itself</w>": 5205, "assembled</w>": 5206, "sensibly</w>": 5207, "join": 5208, "separ": 5209, "caused</w>": 5210, "dication</w>": 5211, "stan": 5212, "sentence</w>": 5213, "She</w>": 5214, "impute</w>": 5215, "deeply</w>": 5216, "firmest</w>": 5217, "yourself</w>": 5218, "occurs</w>": 5219, "Many</w>": 5220, "daughter</w>": 5221, "ne": 5222, "there": 5223, "shine</w>": 5224, "west</w>": 5225, "First</w>": 5226, "describe</w>": 5227, "sig": 5228, "spo": 5229, "desired</w>": 5230, "owing</w>": 5231, "partners</w>": 5232, "felicity</w>": 5233, "tered</w>": 5234, "ever</w>": 5235, "abused</w>": 5236, "warmth</w>": 5237, "ness</w>": 5238, "trouble</w>": 5239, "patronage</w>": 5240, "thanked</w>": 5241, "nocently</w>": 5242, "_month": 5243, "distinguish</w>": 5244, "luckily</w>": 5245, "jec": 5246, "be_</w>": 5247, "shaken</w>": 5248, "tolerable</w>": 5249, "grave</w>": 5250, "rest</w>": 5251, "inquiring</w>": 5252, "ches</w>": 5253, "mouths</w>": 5254, "serving</w>": 5255, "tempt</w>": 5256, "chin": 5257, "refuse</w>": 5258, "facul": 5259, "single</w>": 5260, "Cheapside</w>": 5261, "it</w>": 5262, "tions</w>": 5263, "o": 5264, "clever</w>": 5265, "principle</w>": 5266, "most</w>": 5267, "lend</w>": 5268, "wonderfully</w>": 5269, "popular</w>": 5270, "trifle</w>": 5271, "showing</w>": 5272, "sity</w>": 5273, "tickets</w>": 5274, "plans</w>": 5275, "I": 5276, "adventure</w>": 5277, "thecary</w>": 5278, "lowest</w>": 5279, "_toler": 5280, "ently</w>": 5281, "excuse</w>": 5282, "sings</w>": 5283, "amendment</w>": 5284, "dictatori": 5285, "allow</w>": 5286, "detaching</w>": 5287, "justified</w>": 5288, "abode</w>": 5289, "little</w>": 5290, "liveliest</w>": 5291, "route</w>": 5292, "-</w>": 5293, "stating</w>": 5294, "Pr": 5295, "reveri": 5296, "prit</w>": 5297, "detain</w>": 5298, "inv": 5299, "tiresome</w>": 5300, "consists</w>": 5301, "answered</w>": 5302, "secon": 5303, "Lizzyâ</w>": 5304, "6": 5305, "confiding</w>": 5306, "to</w>": 5307, "overheard</w>": 5308, "bitterness</w>": 5309, "delayed</w>": 5310, "papa</w>": 5311, "mistaken</w>": 5312, "mine</w>": 5313, "attentive</w>": 5314, "Ladyshipâ</w>": 5315, "atoned</w>": 5316, "ority</w>": 5317, "pro": 5318, "forfe": 5319, "ative</w>": 5320, "supper</w>": 5321, "gaining</w>": 5322, "awkward</w>": 5323, "replete</w>": 5324, "alid</w>": 5325, "Sometimes</w>": 5326, "thither</w>": 5327, "estates</w>": 5328, "fast</w>": 5329, "benevolent</w>": 5330, "practice</w>": 5331, "pouring</w>": 5332, "apartment</w>": 5333, "naturally</w>": 5334, "preference</w>": 5335, "burying</w>": 5336, "conceited</w>": 5337, "acceptable</w>": 5338, "nose</w>": 5339, "preserve</w>": 5340, "held</w>": 5341, "close</w>": 5342, "suspicions</w>": 5343, "marks</w>": 5344, "sufficiently</w>": 5345, "k</w>": 5346, "sell</w>": 5347, "throw</w>": 5348, "ditional</w>": 5349, "complete</w>": 5350, "ingenious</w>": 5351, "proflig": 5352, "touched</w>": 5353, "Long</w>": 5354, "moving</w>": 5355, "whichever</w>": 5356, "door": 5357, "au": 5358, "courage</w>": 5359, "stran": 5360, "despaired</w>": 5361, "advantage": 5362, "called</w>": 5363, "devo": 5364, "Now</w>": 5365, "mortification</w>": 5366, "beholding</w>": 5367, "otherâ</w>": 5368, "_S": 5369, "beaute": 5370, "fied</w>": 5371, "ward</w>": 5372, "reluc": 5373, "y</w>": 5374, "cir": 5375, "sad</w>": 5376, "buted</w>": 5377, "hands</w>": 5378, "mark</w>": 5379, "mprudence</w>": 5380, "sound</w>": 5381, "treatment</w>": 5382, "Charlotteâ</w>": 5383, "uncommon</w>": 5384, "attributed</w>": 5385, "send</w>": 5386, "gathered</w>": 5387, "ayed</w>": 5388, "_tÃªte</w>": 5389, "scorned</w>": 5390, "horrid</w>": 5391, "travelling</w>": 5392, "faults</w>": 5393, "credit</w>": 5394, "phaeton</w>": 5395, "undertaking</w>": 5396, "rost</w>": 5397, "amorous</w>": 5398, "do": 5399, "marked</w>": 5400, "Mr</w>": 5401, "positively</w>": 5402, "distinguishing</w>": 5403, "grain</w>": 5404, "stoo": 5405, "eager</w>": 5406, "tance</w>": 5407, "stately</w>": 5408, "message</w>": 5409, "temper</w>": 5410, "Longbourn</w>": 5411, "choo": 5412, "tedi": 5413, "favourably</w>": 5414, "regul": 5415, "taciturn</w>": 5416, "news</w>": 5417, "tion</w>": 5418, "fatigued</w>": 5419, "gran": 5420, "thinks</w>": 5421, "hide</w>": 5422, "military</w>": 5423, "delighted</w>": 5424, "t_</w>": 5425, "noon</w>": 5426, "sistersâ</w>": 5427, "justice</w>": 5428, "wretchedness</w>": 5429, "attentively</w>": 5430, "forcing</w>": 5431, "cheat</w>": 5432, "moreover</w>": 5433, "acking</w>": 5434, "ting": 5435, "quered</w>": 5436, "atigued</w>": 5437, "chiefly</w>": 5438, "stateliness</w>": 5439, "remain": 5440, "precipitate</w>": 5441, "overspread</w>": 5442, "stag": 5443, "chose</w>": 5444, "objects</w>": 5445, "tears</w>": 5446, "sisterâ</w>": 5447, "downs</w>": 5448, "et": 5449, "slight</w>": 5450, "Bennet</w>": 5451, "adding</w>": 5452, "some": 5453, "estate</w>": 5454, "quadrille</w>": 5455, "played</w>": 5456, "entreat</w>": 5457, "have</w>": 5458, "poo": 5459, "sense</w>": 5460, "considered</w>": 5461, "tru": 5462, "effectually</w>": 5463, "prove</w>": 5464, "court</w>": 5465, "per</w>": 5466, "willingly</w>": 5467, "Do": 5468, "discern</w>": 5469, "requisite</w>": 5470, "Since</w>": 5471, "previously</w>": 5472, "Our</w>": 5473, "ideas</w>": 5474, "mount</w>": 5475, "exceedingly</w>": 5476, "written</w>": 5477, "slighted</w>": 5478, "environs</w>": 5479, "avered</w>": 5480, "_that_</w>": 5481, "calls</w>": 5482, "morti": 5483, "over</w>": 5484, "reminded</w>": 5485, "singled</w>": 5486, "provoc": 5487, "wiser</w>": 5488, "help</w>": 5489, "is": 5490, "soliciting</w>": 5491, "ceremoni": 5492, "detected</w>": 5493, "hedge</w>": 5494, "aconi": 5495, "Lydia</w>": 5496, "suspecting</w>": 5497, "inter": 5498, "camp</w>": 5499, "bright</w>": 5500, "deman": 5501, "bless</w>": 5502, "blown</w>": 5503, "vow</w>": 5504, "ked</w>": 5505, "sidebo": 5506, "similar</w>": 5507, "weakness</w>": 5508, "lover</w>": 5509, "dec": 5510, "atest</w>": 5511, "everyone</w>": 5512, "dr": 5513, "sensible</w>": 5514, "rudeness</w>": 5515, "resig": 5516, "ability</w>": 5517, "ram": 5518, "awake</w>": 5519, "inconveni": 5520, "famili": 5521, "withheld</w>": 5522, "incompre": 5523, "comprise</w>": 5524, "duration</w>": 5525, "grow</w>": 5526, "weakened</w>": 5527, "ts</w>": 5528, "particularly</w>": 5529, "default</w>": 5530, "bye</w>": 5531, "People</w>": 5532, "quickness</w>": 5533, "arguing</w>": 5534, "enced</w>": 5535, "arose</w>": 5536, "Whatever</w>": 5537, "entirely</w>": 5538, "Upon</w>": 5539, "incivility</w>": 5540, "decorum</w>": 5541, "request</w>": 5542, "you</w>": 5543, "dest_</w>": 5544, "mode</w>": 5545, "buting</w>": 5546, "XXX": 5547, "submit</w>": 5548, "promised</w>": 5549, "admires</w>": 5550, "staircase</w>": 5551, "atti": 5552, "tations</w>": 5553, "beneath</w>": 5554, "vast</w>": 5555, "uniformity</w>": 5556, "extravagant</w>": 5557, "_They_</w>": 5558, "regrets</w>": 5559, "severity</w>": 5560, "happiest</w>": 5561, "gered</w>": 5562, "figh": 5563, "otherwise</w>": 5564, "Whi": 5565, "rencounter</w>": 5566, "emotion</w>": 5567, "compassionate</w>": 5568, "consented</w>": 5569, "dissu": 5570, "unequal</w>": 5571, "both</w>": 5572, "ane</w>": 5573, "goodness</w>": 5574, "aculous</w>": 5575, "expressed</w>": 5576, "sensations</w>": 5577, "sometimes</w>": 5578, "overlook</w>": 5579, "meetings</w>": 5580, "In": 5581, "hair</w>": 5582, "her": 5583, "prosperity</w>": 5584, "apprehended</w>": 5585, "engage</w>": 5586, "insists</w>": 5587, "vulgar</w>": 5588, "reck": 5589, "Before</w>": 5590, "got</w>": 5591, "aking</w>": 5592, "treating</w>": 5593, "trees</w>": 5594, "shall</w>": 5595, "of</w>": 5596, "objectionable</w>": 5597, "lds</w>": 5598, "amusing</w>": 5599, "informs</w>": 5600, "expect</w>": 5601, "story</w>": 5602, "pauses</w>": 5603, "city</w>": 5604, "falls</w>": 5605, "old</w>": 5606, "storing</w>": 5607, "archly</w>": 5608, "notice</w>": 5609, "polished</w>": 5610, "sharers</w>": 5611, "knighthood</w>": 5612, "mean": 5613, "ged</w>": 5614, "satisfy</w>": 5615, "discontinuance</w>": 5616, "ayâ</w>": 5617, "month": 5618, "punishment</w>": 5619, "Rosings</w>": 5620, "he</w>": 5621, "argument</w>": 5622, "ached</w>": 5623, "gue</w>": 5624, "consci": 5625, "vestibule</w>": 5626, "impressing</w>": 5627, "intricate</w>": 5628, "any_</w>": 5629, "asu": 5630, "suitable</w>": 5631, "shi": 5632, "informing</w>": 5633, "complain</w>": 5634, "pless</w>": 5635, "show</w>": 5636, "declined</w>": 5637, "vice</w>": 5638, "defec": 5639, "understood</w>": 5640, "sorry</w>": 5641, "propiti": 5642, "observations</w>": 5643, "foul</w>": 5644, "humility</w>": 5645, "present_</w>": 5646, "account</w>": 5647, "abominable</w>": 5648, "muslin</w>": 5649, "sleep</w>": 5650, "dece": 5651, "for": 5652, "arran": 5653, "pretence</w>": 5654, "direc": 5655, "recent</w>": 5656, "marri": 5657, ",</w>": 5658, "anybodyâ</w>": 5659, "regretting</w>": 5660, "forbearance</w>": 5661, "measures</w>": 5662, "satisfaction</w>": 5663, "dable</w>": 5664, "drawn</w>": 5665, "juni": 5666, "gladly</w>": 5667, "loved</w>": 5668, "pithet</w>": 5669, "relative</w>": 5670, "fancied</w>": 5671, "incredible</w>": 5672, "ats</w>": 5673, "reader</w>": 5674, "existed</w>": 5675, "effects</w>": 5676, "happens</w>": 5677, "appear</w>": 5678, "oblige</w>": 5679, "off</w>": 5680, "elder</w>": 5681, "alive</w>": 5682, "monest</w>": 5683, "citation</w>": 5684, "speculation</w>": 5685, "appe": 5686, "concealed</w>": 5687, "sour</w>": 5688, "awakened</w>": 5689, "conduc": 5690, "religi": 5691, "nor": 5692, "co": 5693, "eccentri": 5694, "dish</w>": 5695, "acutest</w>": 5696, "expressing</w>": 5697, "indeed</w>": 5698, "se</w>": 5699, "atched</w>": 5700, "XXX</w>": 5701, "report</w>": 5702, "moun": 5703, "shared</w>": 5704, "tu": 5705, "Whenever</w>": 5706, "mirth</w>": 5707, "connections</w>": 5708, "characteristic</w>": 5709, "bestow</w>": 5710, "nant</w>": 5711, "obstinacy</w>": 5712, "Impossible</w>": 5713, "expecting</w>": 5714, "Elizabeth</w>": 5715, "lessen</w>": 5716, "lorn</w>": 5717, "comparing</w>": 5718, "leisure</w>": 5719, "game</w>": 5720, "else</w>": 5721, "slightly</w>": 5722, "resemblance</w>": 5723, "Something</w>": 5724, "vinced</w>": 5725, "elsewhere</w>": 5726, "odious</w>": 5727, "probability</w>": 5728, "III</w>": 5729, "k": 5730, "discernment</w>": 5731, "Collinsâ</w>": 5732, "repaid</w>": 5733, "disputes</w>": 5734, "Some</w>": 5735, "againâ</w>": 5736, "cally</w>": 5737, "precision</w>": 5738, "heart</w>": 5739, "attractions</w>": 5740, "while</w>": 5741, "querulous</w>": 5742, "mention</w>": 5743, "blushing</w>": 5744, "confirmed</w>": 5745, "shire": 5746, "country</w>": 5747, "satisfactory</w>": 5748, "Far</w>": 5749, "voluntarily</w>": 5750, "acqui": 5751, "despair</w>": 5752, "circumstances</w>": 5753, "contrive</w>": 5754, "supposing</w>": 5755, "universally</w>": 5756, "really</w>": 5757, "Youn": 5758, "unconnected</w>": 5759, "spent</w>": 5760, "valu": 5761, "enjoying</w>": 5762, "_had</w>": 5763, "Netherfield</w>": 5764, "blind</w>": 5765, "soul</w>": 5766, "accoun": 5767, "elled</w>": 5768, "diver": 5769, "astonishment</w>": 5770, "devoi": 5771, "bought</w>": 5772, "lease</w>": 5773, "incur": 5774, "extensive</w>": 5775, "carrying</w>": 5776, "mislead</w>": 5777, "lob": 5778, "aches</w>": 5779, "conjecture</w>": 5780, "guessed</w>": 5781, "wished_</w>": 5782, "justifi": 5783, "insolent</w>": 5784, "seclusion</w>": 5785, "ayer</w>": 5786, "gig</w>": 5787, "shack": 5788, "prepossession</w>": 5789, "tendency</w>": 5790, "c</w>": 5791, "nation</w>": 5792, "present</w>": 5793, "Annesley</w>": 5794, "tacit</w>": 5795, "scarce</w>": 5796, "profitable</w>": 5797, "opinions</w>": 5798, "E</w>": 5799, "banish</w>": 5800, "somewhat</w>": 5801, "observing</w>": 5802, "quarrelling</w>": 5803, "despise</w>": 5804, "mildness</w>": 5805, "doing</w>": 5806, "army</w>": 5807, "amenting</w>": 5808, "profit</w>": 5809, "_That_</w>": 5810, "cows</w>": 5811, "luck</w>": 5812, "dev": 5813, "accidentally</w>": 5814, "el": 5815, "arriving</w>": 5816, "detail</w>": 5817, "church</w>": 5818, "mending</w>": 5819, "steps</w>": 5820, "surely</w>": 5821, "House</w>": 5822, "sees</w>": 5823, "rapidity</w>": 5824, "length</w>": 5825, "unhappily</w>": 5826, "longed</w>": 5827, "when</w>": 5828, "explain</w>": 5829, "earliest</w>": 5830, "boast</w>": 5831, "great</w>": 5832, "aye</w>": 5833, "improv": 5834, "read</w>": 5835, "taken</w>": 5836, "rained</w>": 5837, "real</w>": 5838, "height</w>": 5839, "Iâ</w>": 5840, "cauti": 5841, "heavenâ</w>": 5842, "determined</w>": 5843, "repetition</w>": 5844, "incre": 5845, "lucki": 5846, "counting</w>": 5847, "removing</w>": 5848, "disclose</w>": 5849, "met</w>": 5850, "Shall</w>": 5851, "cousins</w>": 5852, "bitterly</w>": 5853, "ining</w>": 5854, "ods</w>": 5855, "repressing</w>": 5856, "ousness</w>": 5857, "nnight</w>": 5858, "relinquish</w>": 5859, "reason": 5860, "desire</w>": 5861, "incumbent</w>": 5862, "_were_</w>": 5863, "Nonsense</w>": 5864, "misfortune</w>": 5865, "accustomed</w>": 5866, "unintelligible</w>": 5867, "materially</w>": 5868, "detained</w>": 5869, "aided</w>": 5870, "overpowered</w>": 5871, "ro": 5872, "ridiculing</w>": 5873, "extenu": 5874, "rap": 5875, "brin": 5876, "ath": 5877, "Were</w>": 5878, "panegyric</w>": 5879, "mischi": 5880, "rence</w>": 5881, "milliner</w>": 5882, "Easter</w>": 5883, "sick</w>": 5884, "waiter</w>": 5885, "calling</w>": 5886, "instead</w>": 5887, "acquit</w>": 5888, "Never</w>": 5889, "asking</w>": 5890, "ous</w>": 5891, "shade</w>": 5892, "ers</w>": 5893, "ag": 5894, "unison</w>": 5895, "interrupted</w>": 5896, "abominably</w>": 5897, "season</w>": 5898, "ni": 5899, "tastes</w>": 5900, "continu": 5901, "fre": 5902, "milliner": 5903, "reflect</w>": 5904, "Jane</w>": 5905, "informed</w>": 5906, "isurely</w>": 5907, "me": 5908, "ates</w>": 5909, "Al": 5910, "adoration</w>": 5911, "_right_</w>": 5912, "_mean": 5913, "calledâ</w>": 5914, "Reynolds</w>": 5915, "filling</w>": 5916, "refu": 5917, "fret": 5918, "joyful</w>": 5919, "rise</w>": 5920, "cre": 5921, "replied</w>": 5922, "polite</w>": 5923, "ing</w>": 5924, "car": 5925, "better</w>": 5926, "apart": 5927, "godson</w>": 5928, "_more_</w>": 5929, "proof</w>": 5930, "indebted</w>": 5931, "perusal</w>": 5932, "among</w>": 5933, "confirming</w>": 5934, "attle</w>": 5935, "prejudiced</w>": 5936, "blaming</w>": 5937, "hin": 5938, "obligations</w>": 5939, "philosophy</w>": 5940, "delicate</w>": 5941, "struggles</w>": 5942, "fell</w>": 5943, "lovers</w>": 5944, "incessantly</w>": 5945, "_yours_</w>": 5946, "consequently</w>": 5947, "recommended</w>": 5948, "listen</w>": 5949, "cou": 5950, "penitent</w>": 5951, "red</w>": 5952, "od": 5953, "stir": 5954, "points</w>": 5955, "metry</w>": 5956, "gl": 5957, "constru": 5958, "thanking</w>": 5959, "confeder": 5960, "astonish</w>": 5961, "eving</w>": 5962, "despises</w>": 5963, "hatred</w>": 5964, "deigned</w>": 5965, "buy</w>": 5966, "expedient</w>": 5967, "resented</w>": 5968, "Donâ</w>": 5969, "True</w>": 5970, "clo": 5971, "bit</w>": 5972, "GH": 5973, ")</w>": 5974, "seâ</w>": 5975, "vic": 5976, "finite</w>": 5977, "haste</w>": 5978, "blo": 5979, "grand</w>": 5980, "dressing</w>": 5981, "generation</w>": 5982, "as": 5983, "pronounce</w>": 5984, "remarks</w>": 5985, "write</w>": 5986, "amily</w>": 5987, "thought</w>": 5988, "ham</w>": 5989, "Would</w>": 5990, "extor": 5991, "Soon</w>": 5992, "inconvenient</w>": 5993, "recommendation</w>": 5994, "gratifying</w>": 5995, "wife</w>": 5996, "compliment</w>": 5997, "petual</w>": 5998, "crying</w>": 5999, "went</w>": 6000, "library</w>": 6001, "recall</w>": 6002, "T": 6003, "wet</w>": 6004, "Heaven</w>": 6005, "renewed</w>": 6006, "weary</w>": 6007, "retreated</w>": 6008, "defend</w>": 6009, "arch": 6010, "seminari": 6011, "allu": 6012, "eceâ</w>": 6013, "mit</w>": 6014, "courses</w>": 6015, "respectful</w>": 6016, "womanâ</w>": 6017, "mile</w>": 6018, "endeavour": 6019, "tide</w>": 6020, "hypocritical</w>": 6021, "admiration</w>": 6022, "stron": 6023, "cousinâ</w>": 6024, "anger</w>": 6025, "successively</w>": 6026, "e_</w>": 6027, "growing</w>": 6028, "Philips</w>": 6029, "sooner</w>": 6030, "wishes</w>": 6031, "fully</w>": 6032, "uly</w>": 6033, "ssed</w>": 6034, "esteem</w>": 6035, "attorney</w>": 6036, "justly</w>": 6037, "arts</w>": 6038, "turned</w>": 6039, "dread": 6040, "soled</w>": 6041, "momentary</w>": 6042, "ai": 6043, "ighed</w>": 6044, "understanding</w>": 6045, "objecting</w>": 6046, "procure</w>": 6047, "entertainment</w>": 6048, "nowhere</w>": 6049, "plenty</w>": 6050, "my": 6051, "sinking</w>": 6052, "custody</w>": 6053, "IV</w>": 6054, "altered</w>": 6055, "splen": 6056, "wrong</w>": 6057, "gh</w>": 6058, "abouts</w>": 6059, "cal": 6060, "returning</w>": 6061, "coincidence</w>": 6062, "maid</w>": 6063, "rank</w>": 6064, "nov": 6065, "vo": 6066, "abrupt</w>": 6067, "speedily</w>": 6068, "ime": 6069, "cough</w>": 6070, "pay</w>": 6071, "resent</w>": 6072, "separate</w>": 6073, "triumphing</w>": 6074, "arc": 6075, "banished</w>": 6076, "neighbour</w>": 6077, "revenging</w>": 6078, "acceded</w>": 6079, "miseri": 6080, "invention</w>": 6081, "behind</w>": 6082, "causes</w>": 6083, "atin</w>": 6084, "dence</w>": 6085, "Believe</w>": 6086, "lip": 6087, "features</w>": 6088, "love</w>": 6089, "ons</w>": 6090, "contemplation</w>": 6091, "simply</w>": 6092, "dispute</w>": 6093, "pointed</w>": 6094, "exactly</w>": 6095, "akfast</w>": 6096, "Besides</w>": 6097, "follies</w>": 6098, "ally</w>": 6099, "nished</w>": 6100, "selves</w>": 6101, "indignation</w>": 6102, "finding</w>": 6103, "hastened</w>": 6104, "aking": 6105, "x": 6106, "either</w>": 6107, "Darcy</w>": 6108, "tali": 6109, "There</w>": 6110, "papers</w>": 6111, "resign</w>": 6112, "profe": 6113, "dullest</w>": 6114, "sed</w>": 6115, "attack</w>": 6116, "sequel</w>": 6117, "roboration</w>": 6118, "wretched</w>": 6119, "unless</w>": 6120, "breath</w>": 6121, "g</w>": 6122, "joyed</w>": 6123, "Williamâ</w>": 6124, "houses</w>": 6125, "ladies</w>": 6126, "whom</w>": 6127, "overcame</w>": 6128, "ducks</w>": 6129, "field</w>": 6130, "addressing</w>": 6131, "conjec": 6132, "_My_</w>": 6133, "eu</w>": 6134, "_me_</w>": 6135, "preservation</w>": 6136, "depart</w>": 6137, "airing</w>": 6138, "leful</w>": 6139, "instruc": 6140, "Reyno": 6141, "loose</w>": 6142, "contradict</w>": 6143, "handsomer</w>": 6144, "mixing</w>": 6145, "guarded</w>": 6146, "amish</w>": 6147, "escaped</w>": 6148, "inconstan": 6149, "CHA": 6150, "sto": 6151, "still</w>": 6152, "discomposed</w>": 6153, "acquainted</w>": 6154, "min": 6155, "dif": 6156, "repeating</w>": 6157, "donâ</w>": 6158, "rector</w>": 6159, "worst</w>": 6160, "servi": 6161, "Nothing</w>": 6162, "thing</w>": 6163, "witness</w>": 6164, "brain</w>": 6165, "Michaelmas</w>": 6166, "win</w>": 6167, "fame</w>": 6168, "branch</w>": 6169, "unexpected</w>": 6170, "Af": 6171, "thought": 6172, "false</w>": 6173, "spirited</w>": 6174, "believing</w>": 6175, "conscious</w>": 6176, "Pen</w>": 6177, "trace</w>": 6178, "stamp</w>": 6179, "spot</w>": 6180, "publicly</w>": 6181, "down": 6182, "occasionally</w>": 6183, "fications</w>": 6184, "gent": 6185, "candour</w>": 6186, "fili": 6187, "fended</w>": 6188, "happier</w>": 6189, "entertain</w>": 6190, "withdrew</w>": 6191, "dissatisfied</w>": 6192, "over": 6193, "imagination</w>": 6194, "attempting</w>": 6195, "endeavoured</w>": 6196, "att</w>": 6197, "clothes</w>": 6198, "fare</w>": 6199, "unfortunately</w>": 6200, "transpired</w>": 6201, "nuts</w>": 6202, "resolute</w>": 6203, "Till</w>": 6204, "lette</w>": 6205, "prone</w>": 6206, "de</w>": 6207, "questions</w>": 6208, "preceded</w>": 6209, "vouch</w>": 6210, "Who": 6211, "awaited</w>": 6212, "experienced</w>": 6213, "retaining</w>": 6214, "trifling</w>": 6215, "inm": 6216, "hat</w>": 6217, "embracing</w>": 6218, "destroyed</w>": 6219, "pronouncing</w>": 6220, "&": 6221, "amelessness</w>": 6222, "suited</w>": 6223, "aws</w>": 6224, "embr": 6225, "take</w>": 6226, "families</w>": 6227, "ded</w>": 6228, "repented</w>": 6229, "derision</w>": 6230, "stage</w>": 6231, "gained</w>": 6232, "cared</w>": 6233, "profuse</w>": 6234, "competition</w>": 6235, "minded</w>": 6236, "deduced</w>": 6237, "For</w>": 6238, "cken</w>": 6239, "cher": 6240, "missing</w>": 6241, "vexation</w>": 6242, "depen": 6243, "question</w>": 6244, "done</w>": 6245, "question": 6246, "recovery</w>": 6247, "stiffness</w>": 6248, "struck</w>": 6249, "revoc": 6250, "c": 6251, "excel</w>": 6252, "_dined_</w>": 6253, "bridge</w>": 6254, "unaffected</w>": 6255, "intruding</w>": 6256, "sequen": 6257, "garity</w>": 6258, "holding</w>": 6259, "danced</w>": 6260, "folly</w>": 6261, "exerting</w>": 6262, "horses</w>": 6263, "nec": 6264, "entitled</w>": 6265, "become</w>": 6266, "profici": 6267, "y_</w>": 6268, "_may_</w>": 6269, "power</w>": 6270, "volume</w>": 6271, "ru": 6272, "hearing</w>": 6273, "dismissed</w>": 6274, "notions</w>": 6275, "remembered</w>": 6276, "justification</w>": 6277, "inexpre": 6278, "shocked</w>": 6279, "gover": 6280, "dispelling</w>": 6281, "oftener</w>": 6282, "yet</w>": 6283, "atory</w>": 6284, "coo": 6285, "refute</w>": 6286, "window</w>": 6287, "Ladyship</w>": 6288, "Re": 6289, "servants</w>": 6290, "Robinsonâ</w>": 6291, "cruelty</w>": 6292, "ker": 6293, "H": 6294, "advantageous</w>": 6295, "concerning</w>": 6296, "patron</w>": 6297, "pledged</w>": 6298, "leyâ</w>": 6299, "conduct</w>": 6300, "people</w>": 6301, "pale</w>": 6302, "lded</w>": 6303, "method</w>": 6304, "cisms</w>": 6305, "excite</w>": 6306, "fortunate</w>": 6307, "env": 6308, "coffee</w>": 6309, "warded</w>": 6310, "stiffly</w>": 6311, "emplo": 6312, "heaven</w>": 6313, "fasted</w>": 6314, "feeling</w>": 6315, "recollections</w>": 6316, "guidance</w>": 6317, "ramids</w>": 6318, "ey": 6319, "_never_</w>": 6320, "mamma</w>": 6321, "going</w>": 6322, "settle</w>": 6323, "discerning</w>": 6324, "sakes</w>": 6325, "overthrowing</w>": 6326, "Cham": 6327, "somebody</w>": 6328, "tenderness</w>": 6329, "simple</w>": 6330, "coldly</w>": 6331, "bring</w>": 6332, "subjection</w>": 6333, "parsonage</w>": 6334, "_her_</w>": 6335, "Che": 6336, "poultry</w>": 6337, "owes</w>": 6338, "p</w>": 6339, "commended</w>": 6340, "uniformly</w>": 6341, "suspense</w>": 6342, "shire</w>": 6343, "tness</w>": 6344, "revive</w>": 6345, "hoped</w>": 6346, "entreaty</w>": 6347, "vigour</w>": 6348, "society</w>": 6349, "delightfully</w>": 6350, "coach</w>": 6351, "reproof</w>": 6352, "absence</w>": 6353, "elev": 6354, "denial</w>": 6355, "Jamesâ</w>": 6356, "tre": 6357, "quisite</w>": 6358, "we</w>": 6359, "J": 6360, "asp</w>": 6361, "Thou": 6362, "filled</w>": 6363, "atone</w>": 6364, "disputable</w>": 6365, "fluttered</w>": 6366, "joining</w>": 6367, "rowed</w>": 6368, "pli": 6369, "fled</w>": 6370, "suit</w>": 6371, "gled</w>": 6372, "perseverance</w>": 6373, "assumed</w>": 6374, "ace</w>": 6375, "hand": 6376, "unworthy</w>": 6377, "communic": 6378, "eagerness</w>": 6379, "pause</w>": 6380, "found</w>": 6381, "lity</w>": 6382, "us</w>": 6383, "advisable</w>": 6384, "courti": 6385, "Anne": 6386, "Hill</w>": 6387, "borrow</w>": 6388, "night</w>": 6389, "_": 6390, "doings</w>": 6391, "extremely</w>": 6392, "instance</w>": 6393, "regar": 6394, "amusements</w>": 6395, "auntâ</w>": 6396, "transition</w>": 6397, "alliance</w>": 6398, "}</w>": 6399, "improve</w>": 6400, "extractions</w>": 6401, "herit</w>": 6402, "ure</w>": 6403, "involuntary</w>": 6404, "dary</w>": 6405, "independence</w>": 6406, "ir_</w>": 6407, "discover</w>": 6408, "disappoint</w>": 6409, "couple</w>": 6410, "liberal</w>": 6411, "hear": 6412, "es</w>": 6413, "Your</w>": 6414, "susce": 6415, "air</w>": 6416, "ale</w>": 6417, "conversation</w>": 6418, "hold</w>": 6419, "surroun": 6420, "ur": 6421, "between</w>": 6422, "lst</w>": 6423, "brittle</w>": 6424, "everywhere</w>": 6425, "determine</w>": 6426, "explan": 6427, "flutter</w>": 6428, "sentiments</w>": 6429, "pompous</w>": 6430, "seats</w>": 6431, "lon": 6432, "flir": 6433, "But</w>": 6434, "impressed</w>": 6435, "emp": 6436, "ction</w>": 6437, "meditated</w>": 6438, "concerto</w>": 6439, "willingness</w>": 6440, "authorized</w>": 6441, "disapprobation</w>": 6442, "virtue</w>": 6443, "springing</w>": 6444, "declaring</w>": 6445, "yield</w>": 6446, "welling</w>": 6447, "hesitate</w>": 6448, "shop</w>": 6449, "distressing</w>": 6450, "avoi": 6451, "decisive</w>": 6452, "liveliness</w>": 6453, "ableâ</w>": 6454, "moved</w>": 6455, "amped</w>": 6456, "reflec": 6457, "tranquilly</w>": 6458, "glowing</w>": 6459, "themselves</w>": 6460, "disinterested</w>": 6461, "covering</w>": 6462, "conviction</w>": 6463, "hence</w>": 6464, "trespass</w>": 6465, "bitterest</w>": 6466, "sweet</w>": 6467, "meditation</w>": 6468, "main": 6469, "subjects</w>": 6470, "deficiency</w>": 6471, "benefici": 6472, "exclamations</w>": 6473, "jury</w>": 6474, "desertion</w>": 6475, "Hearing</w>": 6476, "cks</w>": 6477, "philosop": 6478, "generously</w>": 6479, "learnt</w>": 6480, "command</w>": 6481, "sweetness</w>": 6482, "miser": 6483, "ob": 6484, "lingering</w>": 6485, "spared</w>": 6486, "person</w>": 6487, "fet": 6488, "ef</w>": 6489, "exist</w>": 6490, "doub": 6491, "illiberal</w>": 6492, "deserve</w>": 6493, "itâ</w>": 6494, "Lord</w>": 6495, "top</w>": 6496, "strance</w>": 6497, "colouring</w>": 6498, "succeeding</w>": 6499, "its</w>": 6500, "unjust</w>": 6501, "anting</w>": 6502, "bility</w>": 6503, "get": 6504, "unpleasant</w>": 6505, "mutual</w>": 6506, "already</w>": 6507, "preferment</w>": 6508, "ageâ</w>": 6509, "reputed</w>": 6510, "should</w>": 6511, "tidings</w>": 6512, "_he_</w>": 6513, "mess</w>": 6514, "steri": 6515, "alad</w>": 6516, "immediate</w>": 6517, "error</w>": 6518, "distinc": 6519, "affectation</w>": 6520, "successful</w>": 6521, "preparation</w>": 6522, "affront</w>": 6523, "active</w>": 6524, "here</w>": 6525, "inches</w>": 6526, "common</w>": 6527, "offering</w>": 6528, "cies</w>": 6529, "miseration</w>": 6530, "economy</w>": 6531, "seems</w>": 6532, "refinements</w>": 6533, "imagine</w>": 6534, "LE": 6535, "honest</w>": 6536, "Lewis</w>": 6537, "assert</w>": 6538, "interrupt</w>": 6539, "B": 6540, "flatter</w>": 6541, "accomplishments</w>": 6542, "before": 6543, "desperate</w>": 6544, "attacks</w>": 6545, "provoking</w>": 6546, "reco": 6547, "comfort</w>": 6548, "insipi": 6549, "future</w>": 6550, "now</w>": 6551, "mercenary</w>": 6552, "Bey": 6553, "ask</w>": 6554, "alluded</w>": 6555, "up</w>": 6556, "topic</w>": 6557, "discontented</w>": 6558, "departure</w>": 6559, "tenderly</w>": 6560, "infancy</w>": 6561, "fable</w>": 6562, "ferer</w>": 6563, "easily</w>": 6564, "passion</w>": 6565, "_heard_</w>": 6566, "nervous</w>": 6567, "powers</w>": 6568, "_this_</w>": 6569, "fu": 6570, "announced</w>": 6571, "illustri": 6572, "approbation</w>": 6573, "room</w>": 6574, "composedly</w>": 6575, "occasional</w>": 6576, "important</w>": 6577, "bur": 6578, "prevent</w>": 6579, "cents</w>": 6580, "censuring</w>": 6581, "apparent</w>": 6582, "stronger</w>": 6583, "warn</w>": 6584, "geness</w>": 6585, "suddenly</w>": 6586, "palli": 6587, "evidently</w>": 6588, "chatty</w>": 6589, "bi": 6590, "impose</w>": 6591, "seemed</w>": 6592, "strained</w>": 6593, "hearty</w>": 6594, "maâ</w>": 6595, "precipitance</w>": 6596, "solemn</w>": 6597, "m</w>": 6598, "partly</w>": 6599, "example</w>": 6600, "vary</w>": 6601, "stor": 6602, "rose</w>": 6603, "On": 6604, "ground</w>": 6605, "improbable</w>": 6606, "rendering</w>": 6607, "surest</w>": 6608, "converting</w>": 6609, "Street</w>": 6610, "described</w>": 6611, "cruel</w>": 6612, "silli": 6613, "lower</w>": 6614, "reaching</w>": 6615, "mp</w>": 6616, "defect</w>": 6617, "complied</w>": 6618, "prou": 6619, "reliance</w>": 6620, "revolution</w>": 6621, "sumed</w>": 6622, "Gardiner</w>": 6623, "spire</w>": 6624, "figures</w>": 6625, "shook</w>": 6626, "ague</w>": 6627, "Clar": 6628, "fellow": 6629, "occupi": 6630, "parcels</w>": 6631, "accent</w>": 6632, "indulge</w>": 6633, "Young</w>": 6634, "Hertfordshire</w>": 6635, "tedness</w>": 6636, "pets</w>": 6637, "dear</w>": 6638, "Bennets</w>": 6639, "practising</w>": 6640, "paper</w>": 6641, "united</w>": 6642, "intervals</w>": 6643, "ab": 6644, "lder</w>": 6645, "lding</w>": 6646, "_had_</w>": 6647, "park</w>": 6648, "brightest</w>": 6649, "saved</w>": 6650, "relished</w>": 6651, "thank": 6652, "ef": 6653, "forego</w>": 6654, "lence</w>": 6655, "prey</w>": 6656, "compared</w>": 6657, "hear</w>": 6658, "envied</w>": 6659, "discourage</w>": 6660, "assented</w>": 6661, "provoked</w>": 6662, "persu": 6663, "separated</w>": 6664, "dreading</w>": 6665, "yed</w>": 6666, "fact</w>": 6667, "uncertain</w>": 6668, "housekee": 6669, "obey</w>": 6670, "considerably</w>": 6671, "veness</w>": 6672, "ond</w>": 6673, "Grosvenor</w>": 6674, "spiteful</w>": 6675, "ading</w>": 6676, "spor": 6677, "humbled</w>": 6678, "affording</w>": 6679, "citness</w>": 6680, "other</w>": 6681, "scarcity</w>": 6682, "twelve</w>": 6683, "view</w>": 6684, "misunderstood</w>": 6685, "blessed</w>": 6686, "instantly</w>": 6687, "aspect</w>": 6688, "vexed</w>": 6689, "carcely</w>": 6690, "acknowledging</w>": 6691, "cisely</w>": 6692, "comparisons</w>": 6693, "speaks</w>": 6694, "sc": 6695, "accusation</w>": 6696, "companion</w>": 6697, "whatâ</w>": 6698, "allow": 6699, "ece</w>": 6700, "glancing</w>": 6701, "asms</w>": 6702, "unchanged</w>": 6703, "checking</w>": 6704, "persuade</w>": 6705, "lowness</w>": 6706, "man</w>": 6707, "shake</w>": 6708, "cast</w>": 6709, "Did</w>": 6710, "Take</w>": 6711, "vance</w>": 6712, "wards</w>": 6713, "heal": 6714, "barefaced</w>": 6715, "disclo": 6716, "uppo": 6717, "poetry</w>": 6718, "desperation</w>": 6719, "them</w>": 6720, "promises</w>": 6721, "learned</w>": 6722, "stockings</w>": 6723, "comprehend</w>": 6724, "Caroline</w>": 6725, "vari": 6726, "traced</w>": 6727, "hated</w>": 6728, "attention</w>": 6729, "composition</w>": 6730, "calculated</w>": 6731, "accepted</w>": 6732, "writing</w>": 6733, "whisper</w>": 6734, "regret</w>": 6735, "ash": 6736, "vation</w>": 6737, "set</w>": 6738, "Its</w>": 6739, "civil</w>": 6740, "atheti": 6741, "veri": 6742, "insincere</w>": 6743, "tamed</w>": 6744, "principled</w>": 6745, "plan</w>": 6746, "favourable</w>": 6747, "correspond</w>": 6748, "spending</w>": 6749, "dities</w>": 6750, "face</w>": 6751, "fix</w>": 6752, "unwell</w>": 6753, "hearers</w>": 6754, "pretti": 6755, "solitary</w>": 6756, "ated_</w>": 6757, "suffered</w>": 6758, "prefaced</w>": 6759, "likewise</w>": 6760, "even</w>": 6761, "discovering</w>": 6762, "hospitality</w>": 6763, "nuptials</w>": 6764, "habits</w>": 6765, "Bingley</w>": 6766, "chim": 6767, "avity</w>": 6768, "recommend</w>": 6769, "distinction</w>": 6770, "eting</w>": 6771, "admiring</w>": 6772, "altogether</w>": 6773, "endeavouring</w>": 6774, "cs</w>": 6775, "friendly</w>": 6776, "daughter": 6777, "cle": 6778, "Where</w>": 6779, "whose</w>": 6780, "escence</w>": 6781, "prepared</w>": 6782, ":</w>": 6783, "aloof</w>": 6784, "clock</w>": 6785, "_not_</w>": 6786, "bordering</w>": 6787, "man": 6788, "ave</w>": 6789, "invited</w>": 6790, "imputing</w>": 6791, "lottery</w>": 6792, "owner</w>": 6793, "pow": 6794, "deser": 6795, "Bingley": 6796, "n": 6797, "foot": 6798, "bred</w>": 6799, "suppl": 6800, "inconsiderable</w>": 6801, "William</w>": 6802, "diness</w>": 6803, "ds</w>": 6804, "hy": 6805, "die</w>": 6806, "health</w>": 6807, "spe": 6808, "saving</w>": 6809, "Has</w>": 6810, "They</w>": 6811, "X</w>": 6812, "aived</w>": 6813, "lov": 6814, "singling</w>": 6815, "death</w>": 6816, "bir": 6817, "stayed</w>": 6818, "tried</w>": 6819, "gracious</w>": 6820, "kery</w>": 6821, "transport</w>": 6822, "life</w>": 6823, "blushed</w>": 6824, "mean</w>": 6825, "arrived</w>": 6826, "Let</w>": 6827, "claim</w>": 6828, "di": 6829, "fullest</w>": 6830, "breaking</w>": 6831, "Philipses</w>": 6832, "aunt</w>": 6833, "card</w>": 6834, "chedly</w>": 6835, "just</w>": 6836, "directed</w>": 6837, "too</w>": 6838, "acrimon": 6839, "dispositions</w>": 6840, "refreshment</w>": 6841, "_did_</w>": 6842, "ci": 6843, "courtship</w>": 6844, "sanctioned</w>": 6845, "tant</w>": 6846, "Bingleyâ</w>": 6847, "strength</w>": 6848, "airs</w>": 6849, "thousand</w>": 6850, "up": 6851, "lift</w>": 6852, "techam": 6853, "admire</w>": 6854, "provided</w>": 6855, "town</w>": 6856, "dearly</w>": 6857, "ger": 6858, "g": 6859, "edge</w>": 6860, "dying</w>": 6861, "ly_</w>": 6862, "arrive</w>": 6863, "imprudent</w>": 6864, "dialogue</w>": 6865, "gr": 6866, "ignorance</w>": 6867, "women</w>": 6868, "4</w>": 6869, "rendered</w>": 6870, "defects</w>": 6871, "assistance</w>": 6872, "du": 6873, "_my": 6874, "kingdom</w>": 6875, "unti": 6876, "asonable</w>": 6877, "dâ</w>": 6878, "befriended</w>": 6879, "founded</w>": 6880, "been</w>": 6881, "men": 6882, "berance</w>": 6883, "full</w>": 6884, "ati": 6885, "there</w>": 6886, "mer": 6887, "tless</w>": 6888, "betrayed</w>": 6889, "ttom</w>": 6890, "carelessness</w>": 6891, "case</w>": 6892, "impropriety</w>": 6893, "studi": 6894, "errors</w>": 6895, "ec": 6896, "run</w>": 6897, "Saturday</w>": 6898, "drop</w>": 6899, "se": 6900, "Lucasâ</w>": 6901, "changed</w>": 6902, "loving</w>": 6903, "gely</w>": 6904, "starting</w>": 6905, "redress</w>": 6906, "Money</w>": 6907, "discourse</w>": 6908, "Eliza</w>": 6909, "dgety</w>": 6910, "abusive</w>": 6911, "agine</w>": 6912, "coloured</w>": 6913, "spoke</w>": 6914, "respects</w>": 6915, "dul": 6916, "alar": 6917, "mo": 6918, "insist</w>": 6919, "assents</w>": 6920, "prevented</w>": 6921, "try</w>": 6922, "dejection</w>": 6923, "gets</w>": 6924, "insolence</w>": 6925, "gre": 6926, "quitting</w>": 6927, "al</w>": 6928, "scrape</w>": 6929, "occurrences</w>": 6930, "friendâ</w>": 6931, "ailed</w>": 6932, "punish</w>": 6933, "perfections</w>": 6934, "pocket</w>": 6935, "existing</w>": 6936, "allied</w>": 6937, "atable</w>": 6938, "motherâ</w>": 6939, "travellers</w>": 6940, "condition</w>": 6941, "watches</w>": 6942, "vio": 6943, "hushed</w>": 6944, "regulation</w>": 6945, "sort</w>": 6946, "aks</w>": 6947, "heightened</w>": 6948, "ours</w>": 6949, "guard</w>": 6950, "paltry</w>": 6951, "crossed</w>": 6952, "ke": 6953, "n</w>": 6954, "evenness</w>": 6955, "peculiarly</w>": 6956, "aimed</w>": 6957, "Bell</w>": 6958, "atres</w>": 6959, "consig": 6960, "deci": 6961, "accepting</w>": 6962, "deserving</w>": 6963, "elds</w>": 6964}, "word2idx": {"success</w>": 0, "believed</w>": 1, "impatiently</w>": 2, "prospect</w>": 3, "rode</w>": 4, "pens</w>": 5, "offence</w>": 6, "discovered</w>": 7, "sisters</w>": 8, "frivolous</w>": 9, "ally_</w>": 10, "here": 11, "plenti": 12, "consoled</w>": 13, "cum": 14, "defended</w>": 15, "kindly</w>": 16, "note</w>": 17, "capable</w>": 18, "He</w>": 19, "ashed</w>": 20, "proposal</w>": 21, "ble": 22, "stability</w>": 23, "amaz": 24, "consult</w>": 25, "generations</w>": 26, "intolerable</w>": 27, "sly</w>": 28, "honours</w>": 29, "secondly</w>": 30, "education</w>": 31, "months</w>": 32, "encouraged</w>": 33, "tion": 34, "striking</w>": 35, "repli": 36, "portion</w>": 37, "inconsisten": 38, "yâ</w>": 39, "soon_</w>": 40, "arise</w>": 41, "tenour</w>": 42, "sever": 43, "amiss</w>": 44, "When</w>": 45, "revol": 46, "showed</w>": 47, "revival</w>": 48, "placing</w>": 49, "outrun</w>": 50, "tens</w>": 51, "unimportant</w>": 52, "no</w>": 53, "ments</w>": 54, "given</w>": 55, "aurel</w>": 56, "acked</w>": 57, "device</w>": 58, "leg": 59, "Gener": 60, "resent": 61, "lost</w>": 62, "passages</w>": 63, "stâ</w>": 64, "dressed</w>": 65, "daughters</w>": 66, "ashes</w>": 67, "overtook</w>": 68, "ement</w>": 69, "rin": 70, "sl": 71, "rent</w>": 72, "dance</w>": 73, "useful</w>": 74, "[</w>": 75, "lure</w>": 76, "uneasiness</w>": 77, "one</w>": 78, "accident</w>": 79, "restoration</w>": 80, "uncomfortable</w>": 81, "scruple</w>": 82, "visit</w>": 83, "cap</w>": 84, "survivor</w>": 85, "ep</w>": 86, "ance</w>": 87, "exclaimed</w>": 88, "interested</w>": 89, "extent</w>": 90, "comprehended</w>": 91, "citly</w>": 92, "impul": 93, "recalled</w>": 94, "eni": 95, "wisest</w>": 96, "der": 97, "pretation</w>": 98, "x</w>": 99, "events</w>": 100, "mped</w>": 101, "citing</w>": 102, "m": 103, "soli": 104, "denomin": 105, "wearied</w>": 106, "ces</w>": 107, "extravagance</w>": 108, "seldom</w>": 109, "stro": 110, "rother</w>": 111, "_we_</w>": 112, "thankful</w>": 113, "requester</w>": 114, "restoring</w>": 115, "elo": 116, "Other</w>": 117, "sti": 118, "ton</w>": 119, "Nearly</w>": 120, "blinded</w>": 121, "oneâ</w>": 122, "side</w>": 123, "positive</w>": 124, "sighed</w>": 125, "delightful</w>": 126, "fashion</w>": 127, "veneration</w>": 128, "And</w>": 129, "remarked</w>": 130, "comforted</w>": 131, "ight</w>": 132, "disclosed</w>": 133, "fellows</w>": 134, "honestly</w>": 135, "impossible</w>": 136, "dest</w>": 137, "deemed</w>": 138, "_him_</w>": 139, "impulse</w>": 140, "venture</w>": 141, "anxious</w>": 142, "smiles</w>": 143, "whim": 144, "av": 145, "whispering</w>": 146, "interruption</w>": 147, "repinings</w>": 148, "follow</w>": 149, "fishing</w>": 150, "nearly</w>": 151, "vex": 152, "gar": 153, "pl": 154, "ore</w>": 155, "introduce</w>": 156, "ach": 157, "Charles</w>": 158, "augh</w>": 159, "seen</w>": 160, "exceeded</w>": 161, "profession</w>": 162, "handsomest</w>": 163, "acted</w>": 164, "cit</w>": 165, "lock</w>": 166, "wil": 167, "Perhaps</w>": 168, "instan": 169, "XX</w>": 170, "beauty</w>": 171, "weeks</w>": 172, "Gre": 173, "saying</w>": 174, "paling</w>": 175, "save</w>": 176, "Wickham</w>": 177, "reprehensible</w>": 178, "wants</w>": 179, "atre</w>": 180, "stituted</w>": 181, "seness</w>": 182, "suming</w>": 183, "Catherine</w>": 184, "laughing</w>": 185, "shy</w>": 186, "upon</w>": 187, "shall": 188, "_she_</w>": 189, "proposals</w>": 190, "Reflection</w>": 191, "mor": 192, "searching</w>": 193, "puzz": 194, "declare</w>": 195, "ce": 196, "fers</w>": 197, "expressive</w>": 198, "deliber": 199, "paining</w>": 200, "escaping</w>": 201, "groun": 202, "house": 203, "properly</w>": 204, "guardianship</w>": 205, "explore</w>": 206, "imagined</w>": 207, "cards</w>": 208, "yi": 209, "easiness</w>": 210, "due</w>": 211, "collec": 212, "flirt</w>": 213, "simpers</w>": 214, "eye": 215, "thers</w>": 216, "ire": 217, "security</w>": 218, "Wi": 219, "malice</w>": 220, "Bourgh</w>": 221, "improved</w>": 222, "ste": 223, "ture": 224, "every": 225, "succe": 226, "fear": 227, "benevolence</w>": 228, "meat</w>": 229, "discre": 230, "detested</w>": 231, "incessant</w>": 232, "seclu": 233, "honour</w>": 234, "engaging</w>": 235, "praised</w>": 236, "intelligible</w>": 237, "resolve</w>": 238, "overlooked</w>": 239, "aces</w>": 240, "Between</w>": 241, "addition</w>": 242, "el</w>": 243, "resource</w>": 244, "agistrate</w>": 245, "violent</w>": 246, "punctually</w>": 247, "tone</w>": 248, "th": 249, "agreeing</w>": 250, "positions</w>": 251, "briefly</w>": 252, "VI</w>": 253, "atiri": 254, "wished</w>": 255, "Everything</w>": 256, "where</w>": 257, "blin": 258, "play</w>": 259, "paint</w>": 260, "matrimony</w>": 261, "dislike</w>": 262, "volu": 263, "principal</w>": 264, "trusting</w>": 265, "satisfactions</w>": 266, "noisy</w>": 267, "ayment</w>": 268, "hi": 269, "objection</w>": 270, "Letters</w>": 271, "censured</w>": 272, "accompanied</w>": 273, "atonement</w>": 274, "disgracing</w>": 275, "accidental</w>": 276, "geli": 277, "shel": 278, "sons</w>": 279, "laugh</w>": 280, "clear</w>": 281, "voluntary</w>": 282, "imperfection</w>": 283, "fair</w>": 284, "accuse</w>": 285, "treat</w>": 286, "ken</w>": 287, "wit</w>": 288, "vently</w>": 289, "inquiries</w>": 290, "sincerely</w>": 291, "safely</w>": 292, "Compliments</w>": 293, "ford</w>": 294, "lodgings</w>": 295, "compromised</w>": 296, "inducements</w>": 297, "veracity</w>": 298, "resentful</w>": 299, "prosperous</w>": 300, "congratulated</w>": 301, "away</w>": 302, "fle": 303, "be</w>": 304, "accosted</w>": 305, "objections</w>": 306, "smile": 307, "long</w>": 308, "but</w>": 309, "G": 310, "answering</w>": 311, "unconsciously</w>": 312, "keener</w>": 313, "disobliging</w>": 314, "suppressed</w>": 315, "afterwards</w>": 316, "fashi": 317, "almost</w>": 318, "patroness</w>": 319, "mping</w>": 320, "pre</w>": 321, "frequently</w>": 322, "iving</w>": 323, "mis</w>": 324, "pest</w>": 325, "quieted</w>": 326, "netting</w>": 327, "ceased</w>": 328, "dwelling</w>": 329, "variety</w>": 330, "give</w>": 331, "offered</w>": 332, "accused</w>": 333, "unex": 334, "coincided</w>": 335, "offer</w>": 336, "visiting</w>": 337, "greatly</w>": 338, "displease</w>": 339, "citations</w>": 340, "94</w>": 341, "practised</w>": 342, "schoo": 343, "XXI</w>": 344, "corps</w>": 345, "ed</w>": 346, "writes</w>": 347, "VII</w>": 348, "duped</w>": 349, "officers</w>": 350, "un</w>": 351, "complacency</w>": 352, "deserts</w>": 353, "gloomy</w>": 354, "disdained</w>": 355, "precious</w>": 356, "dissem": 357, "displaying</w>": 358, "bed</w>": 359, "mixture</w>": 360, "_such_</w>": 361, "aming</w>": 362, "audience</w>": 363, "range</w>": 364, "posti": 365, "omen</w>": 366, "syll": 367, "Luc": 368, "mendable</w>": 369, "familiar</w>": 370, "through</w>": 371, "X": 372, "wonders</w>": 373, "parti": 374, "Exce": 375, "at</w>": 376, "y": 377, "are": 378, "negative</w>": 379, "In</w>": 380, "ligh": 381, "ungenerous</w>": 382, "_should_</w>": 383, "arri": 384, "farewell</w>": 385, "debt</w>": 386, "meditating</w>": 387, "unexpectedly</w>": 388, "principles</w>": 389, "apt</w>": 390, "advising</w>": 391, "master": 392, "stream</w>": 393, "dare</w>": 394, "My</w>": 395, "descending</w>": 396, "dignified</w>": 397, "ssions</w>": 398, "nu": 399, "oppor": 400, "junc": 401, "anticipating</w>": 402, "bour": 403, ".</w>": 404, "testifying</w>": 405, "tim</w>": 406, "pin</w>": 407, "peace</w>": 408, "pointedly</w>": 409, "rate</w>": 410, "detached</w>": 411, "distressed</w>": 412, "others</w>": 413, "quarrel</w>": 414, "sacrifice</w>": 415, "Wednesday</w>": 416, "houn": 417, "vill": 418, "except</w>": 419, "That</w>": 420, "Nor</w>": 421, "prudent</w>": 422, "compare</w>": 423, "consign</w>": 424, "burst</w>": 425, "sanction</w>": 426, "acefully</w>": 427, "happily</w>": 428, "repul": 429, "woody</w>": 430, "scores</w>": 431, "athiz": 432, "value</w>": 433, "prevents</w>": 434, "names</w>": 435, "arrangement</w>": 436, "</w>": 437, "sses</w>": 438, "widow</w>": 439, "comparative</w>": 440, "cle</w>": 441, "sco": 442, "bestowed</w>": 443, "ain": 444, "Boo": 445, "athed</w>": 446, "probable</w>": 447, "declaration</w>": 448, "divi": 449, "blemished</w>": 450, "became</w>": 451, "local</w>": 452, "so</w>": 453, "disdain</w>": 454, "moral</w>": 455, "rooms</w>": 456, "obligation</w>": 457, "yours</w>": 458, "each</w>": 459, "h</w>": 460, "curiosity</w>": 461, "inconvenience</w>": 462, "ss_</w>": 463, "acquaint</w>": 464, "fastidious</w>": 465, "seduction</w>": 466, "dread</w>": 467, "insensible</w>": 468, "Carter</w>": 469, "watch": 470, "feli": 471, "privilege</w>": 472, "merely</w>": 473, "opposed</w>": 474, "provide</w>": 475, "yes</w>": 476, "stopped</w>": 477, "sore</w>": 478, "rushed</w>": 479, "walked</w>": 480, "enderly</w>": 481, "_appearance_</w>": 482, "agitation</w>": 483, "disagreeable</w>": 484, "fer</w>": 485, "After</w>": 486, "tell</w>": 487, "Mamma</w>": 488, "loud</w>": 489, "contains</w>": 490, "remind</w>": 491, "yielding</w>": 492, "plainly</w>": 493, "Can</w>": 494, "z": 495, "friendless</w>": 496, "open</w>": 497, "Much</w>": 498, "recollecting</w>": 499, "impor": 500, "selfish</w>": 501, "sport</w>": 502, "fish": 503, "lawn</w>": 504, "confession</w>": 505, "conditions</w>": 506, "apologizing</w>": 507, "assurances</w>": 508, "furnish</w>": 509, "monthâ</w>": 510, "rapid</w>": 511, "ps</w>": 512, "publish</w>": 513, "smilingly</w>": 514, "cheeks</w>": 515, "likelihood</w>": 516, "displeased</w>": 517, "Meryton</w>": 518, "dishonest</w>": 519, "pecuni": 520, "nearer</w>": 521, "stin": 522, "next</w>": 523, "misfortunes</w>": 524, "genteel</w>": 525, "restrain</w>": 526, "blings</w>": 527, "design</w>": 528, "regulate</w>": 529, "unconcerned</w>": 530, "fici": 531, "shanâ</w>": 532, "Have</w>": 533, "views</w>": 534, "representing</w>": 535, "action</w>": 536, "prefer</w>": 537, "Choose</w>": 538, "particular</w>": 539, "presented</w>": 540, "effusions</w>": 541, "sonage</w>": 542, "gestion</w>": 543, "alone</w>": 544, "proce": 545, "warmest</w>": 546, "vanish</w>": 547, "thirdly</w>": 548, "lev": 549, "sts</w>": 550, "hering</w>": 551, "must</w>": 552, "laying</w>": 553, "vacant</w>": 554, "broo": 555, "becoming</w>": 556, "An": 557, "mingham</w>": 558, "study</w>": 559, "conquest</w>": 560, "during</w>": 561, "suitableness</w>": 562, "admitting</w>": 563, "sist</w>": 564, "uncleâ</w>": 565, "Captain</w>": 566, "As</w>": 567, "direction</w>": 568, "overcome</w>": 569, "_my_</w>": 570, "playing</w>": 571, "bows</w>": 572, "XI</w>": 573, "tes</w>": 574, "delivered</w>": 575, "fail</w>": 576, "drooping</w>": 577, "faulty</w>": 578, "sat</w>": 579, "welcome</w>": 580, "merry</w>": 581, "ping</w>": 582, "gh": 583, "turns</w>": 584, "voi": 585, "absolute</w>": 586, "studies</w>": 587, "tax</w>": 588, "absurd</w>": 589, "o</w>": 590, "T</w>": 591, "likeness</w>": 592, "ount</w>": 593, "conce": 594, "ssistance</w>": 595, "monly</w>": 596, "irritation</w>": 597, "exerted</w>": 598, "chosen</w>": 599, "malicious</w>": 600, "sple": 601, "seded</w>": 602, "silent</w>": 603, "attending</w>": 604, "evident</w>": 605, "ay</w>": 606, "shut</w>": 607, "below</w>": 608, "trial</w>": 609, "kin": 610, "known</w>": 611, "hills</w>": 612, "income</w>": 613, "turn</w>": 614, "anything</w>": 615, "usual</w>": 616, "confident</w>": 617, "glori": 618, "twelvemonth</w>": 619, "ablution</w>": 620, "testified</w>": 621, "doubled</w>": 622, "ses</w>": 623, "amuse</w>": 624, "suggested</w>": 625, "weakest</w>": 626, "limits</w>": 627, "fortnight</w>": 628, "employed</w>": 629, "setting</w>": 630, "vex</w>": 631, "fere</w>": 632, "lou": 633, "resigned</w>": 634, "wel": 635, "agitations</w>": 636, "improper</w>": 637, "stand</w>": 638, "visited</w>": 639, "sions</w>": 640, "afest</w>": 641, "whispered</w>": 642, "solemnity</w>": 643, "equ": 644, "evan": 645, "scrupulous</w>": 646, "needle": 647, "imprudence</w>": 648, "delicious</w>": 649, "solitude</w>": 650, "complying</w>": 651, "tim": 652, "despic": 653, "pull</w>": 654, "odâ</w>": 655, "enjoy</w>": 656, "cleri": 657, "highest</w>": 658, "F": 659, "determination</w>": 660, "sweetest</w>": 661, "engrossed</w>": 662, "missi": 663, "tings</w>": 664, "pity</w>": 665, "passions</w>": 666, "join</w>": 667, "celerity</w>": 668, "grounds</w>": 669, "fatu": 670, "alities</w>": 671, "ho": 672, "judging</w>": 673, "bled</w>": 674, "attended</w>": 675, "sum</w>": 676, "Clapham</w>": 677, "flight</w>": 678, "depended</w>": 679, "adly</w>": 680, "clou": 681, "obliging</w>": 682, "elegance</w>": 683, "dined</w>": 684, "free</w>": 685, "asleep</w>": 686, "divert</w>": 687, "pride</w>": 688, "infinitely</w>": 689, "Gracechurch</w>": 690, "sisterly</w>": 691, "condescen": 692, "advised</w>": 693, "ter</w>": 694, "tening</w>": 695, "lities</w>": 696, "propor": 697, "final</w>": 698, "sive</w>": 699, "satis": 700, "fixed</w>": 701, "assino</w>": 702, "stupid</w>": 703, "proclaim</w>": 704, "substance</w>": 705, "said</w>": 706, "provoke</w>": 707, "envy</w>": 708, "gentle</w>": 709, "professed</w>": 710, "various</w>": 711, "It</w>": 712, "need</w>": 713, "disgust</w>": 714, "quence</w>": 715, "edly</w>": 716, "go</w>": 717, "raising</w>": 718, "sides</w>": 719, "respectable</w>": 720, "busily</w>": 721, "petticoat</w>": 722, "tumult</w>": 723, "venting</w>": 724, "pe": 725, "argued</w>": 726, "day</w>": 727, "mously</w>": 728, "tonly</w>": 729, "aceful</w>": 730, "oods</w>": 731, "plays</w>": 732, "None</w>": 733, "pretty</w>": 734, "tons</w>": 735, "sudden</w>": 736, "injustice</w>": 737, "painter</w>": 738, "prospects</w>": 739, "soup</w>": 740, "ets</w>": 741, "energy</w>": 742, "abruptly</w>": 743, "find</w>": 744, "lar": 745, "gener": 746, "acy</w>": 747, "extended</w>": 748, "fat</w>": 749, "moment": 750, "ple": 751, "rites</w>": 752, "tedly</w>": 753, "asserting</w>": 754, "seated</w>": 755, "rejoiced</w>": 756, "Ã</w>": 757, "unassuming</w>": 758, "sought</w>": 759, "caring</w>": 760, "descent</w>": 761, "surv": 762, "inquired</w>": 763, "igh": 764, "ride</w>": 765, "fin": 766, "shopping</w>": 767, "incur</w>": 768, "dislikes</w>": 769, "gravely</w>": 770, "start</w>": 771, "performance</w>": 772, "leaving</w>": 773, "ations</w>": 774, "tallestâ</w>": 775, "finer</w>": 776, "XXXI</w>": 777, "improvement</w>": 778, "somely</w>": 779, "irksome</w>": 780, "Ten</w>": 781, "train</w>": 782, "timed</w>": 783, "friends</w>": 784, "contemp": 785, "Fitzwilliam</w>": 786, "tly</w>": 787, "d_</w>": 788, "K": 789, "gi": 790, "regardless</w>": 791, "riding</w>": 792, "str": 793, "doubtful</w>": 794, "under</w>": 795, "speci": 796, "oppressed</w>": 797, "ks</w>": 798, "_us_</w>": 799, "intelligent</w>": 800, "valley</w>": 801, "comers</w>": 802, "vely</w>": 803, "minds</w>": 804, "Of</w>": 805, "wo": 806, "valuable</w>": 807, "nephews</w>": 808, "eveningâ</w>": 809, "abomin": 810, "they</w>": 811, "Another</w>": 812, "approached</w>": 813, "asions</w>": 814, "turously</w>": 815, "spirit</w>": 816, "ait</w>": 817, "exercise</w>": 818, "Protested</w>": 819, "rescu": 820, "fac": 821, "usele": 822, "_they_</w>": 823, "broke</w>": 824, "ch_</w>": 825, "dour</w>": 826, "daring</w>": 827, "et</w>": 828, "presents</w>": 829, "grieved</w>": 830, "_there_</w>": 831, "ke_</w>": 832, "lane</w>": 833, "anxi": 834, "ately</w>": 835, "importance</w>": 836, "attacked</w>": 837, "parishi": 838, "dozen</w>": 839, "how</w>": 840, "giving</w>": 841, "language</w>": 842, "confi": 843, "rant</w>": 844, "decency</w>": 845, "gallant</w>": 846, "ads</w>": 847, "inform</w>": 848, "ld</w>": 849, "ens</w>": 850, "narrowest</w>": 851, "required</w>": 852, "intrigues</w>": 853, "Nay</w>": 854, "infamous</w>": 855, "incauti": 856, "accounts</w>": 857, "unhappy</w>": 858, "amp": 859, "necessarily</w>": 860, "observed</w>": 861, "my</w>": 862, "oâ</w>": 863, "accompany</w>": 864, "endeared</w>": 865, "ckedest</w>": 866, "hired</w>": 867, "IN": 868, "replying</w>": 869, "fication</w>": 870, "communication</w>": 871, "ritain</w>": 872, "Bourghâ</w>": 873, "constancy</w>": 874, "to": 875, "retains</w>": 876, "guide</w>": 877, "leave</w>": 878, "represent</w>": 879, "fetime</w>": 880, "bers</w>": 881, "exag": 882, "men</w>": 883, "coppice</w>": 884, "forgetting</w>": 885, "aligh": 886, "fuse</w>": 887, "less</w>": 888, "geti": 889, "she": 890, "unaffectedly</w>": 891, "solent</w>": 892, "addressed</w>": 893, "companions</w>": 894, "!</w>": 895, "an": 896, "proud</w>": 897, "foolish</w>": 898, "quality</w>": 899, "D": 900, "loudly</w>": 901, "distance</w>": 902, "While</w>": 903, "abhor": 904, "mortifying</w>": 905, "brothers</w>": 906, "duty</w>": 907, "parties</w>": 908, "barous</w>": 909, "guilt</w>": 910, "al": 911, "imposed</w>": 912, "_She_</w>": 913, "lodge</w>": 914, "lur": 915, "ridge</w>": 916, "short</w>": 917, "aseless</w>": 918, "RIGHT</w>": 919, "deceived</w>": 920, "disposed</w>": 921, "excellent</w>": 922, "bar": 923, "desert</w>": 924, "stly</w>": 925, "greatest</w>": 926, "anybody</w>": 927, "evil</w>": 928, "on": 929, "woman</w>": 930, "ended</w>": 931, "inventing</w>": 932, "daughterâ</w>": 933, "highly</w>": 934, "dissi": 935, "difference</w>": 936, "himself</w>": 937, "F</w>": 938, "expose</w>": 939, "olive</w>": 940, "remember</w>": 941, "ap</w>": 942, "arch</w>": 943, "led</w>": 944, "sir</w>": 945, "assist</w>": 946, "dingly</w>": 947, "execution</w>": 948, "aning</w>": 949, "shades</w>": 950, "som</w>": 951, "eloping</w>": 952, "dy</w>": 953, "hesitating</w>": 954, "ascended</w>": 955, "Darcyâ</w>": 956, "interference</w>": 957, "fellow</w>": 958, "pose</w>": 959, "parlour</w>": 960, "cautioning</w>": 961, "eliest</w>": 962, "quit</w>": 963, "approach</w>": 964, "comforts</w>": 965, "ampering</w>": 966, "ventured</w>": 967, "eleven</w>": 968, "lonel": 969, "received</w>": 970, "treated</w>": 971, "roused</w>": 972, "ate</w>": 973, "righ": 974, "afresh</w>": 975, "_Copyright</w>": 976, "alter": 977, "elope</w>": 978, "im</w>": 979, "earlier</w>": 980, "alty</w>": 981, "trem": 982, "senting</w>": 983, "settled</w>": 984, "conceit</w>": 985, "cases</w>": 986, "exer": 987, "nur": 988, "ass</w>": 989, "culation</w>": 990, "allusions</w>": 991, "peculi": 992, "vivacity</w>": 993, "_to": 994, "degre": 995, "many</w>": 996, "hard": 997, "qui": 998, "speak</w>": 999, "tiness</w>": 1000, "nearest</w>": 1001, "suspicion</w>": 1002, "opinion</w>": 1003, "V</w>": 1004, "revolt</w>": 1005, "vable</w>": 1006, "harm</w>": 1007, "exclaim</w>": 1008, "belong</w>": 1009, "kit": 1010, "invitation</w>": 1011, "thed</w>": 1012, "_your</w>": 1013, "group</w>": 1014, "assurance</w>": 1015, "enteredâ</w>": 1016, "preceding</w>": 1017, "increase</w>": 1018, "sy": 1019, "succeeded</w>": 1020, "rises</w>": 1021, "Illustration</w>": 1022, "achi": 1023, "effect</w>": 1024, "justify</w>": 1025, "inn</w>": 1026, "soms</w>": 1027, "stem</w>": 1028, "ainer</w>": 1029, "aped</w>": 1030, "ard</w>": 1031, "inconsistency</w>": 1032, "incredulous</w>": 1033, "matters</w>": 1034, "reel</w>": 1035, "endured</w>": 1036, "retirement</w>": 1037, "crow": 1038, "biting</w>": 1039, "</w>": 1040, "Pray</w>": 1041, "unforgiving</w>": 1042, "diffidence</w>": 1043, "Georgianaâ</w>": 1044, "expediti": 1045, "getting</w>": 1046, "har": 1047, "impli": 1048, "duche": 1049, "sources</w>": 1050, "impertinent</w>": 1051, "ri": 1052, "ruption</w>": 1053, "b</w>": 1054, "humble</w>": 1055, "Dear</w>": 1056, "spare</w>": 1057, "London</w>": 1058, "laughingly</w>": 1059, "Pardon</w>": 1060, "keeping</w>": 1061, "_two_</w>": 1062, "admirable</w>": 1063, "bride": 1064, "ements</w>": 1065, "substantial</w>": 1066, "cing</w>": 1067, "imparted</w>": 1068, "out_</w>": 1069, "affec": 1070, "what</w>": 1071, "Tell</w>": 1072, "hausted</w>": 1073, "continued</w>": 1074, "refused</w>": 1075, "youngest</w>": 1076, "stirs</w>": 1077, "intimately</w>": 1078, "temptation</w>": 1079, "pianoforte</w>": 1080, "manage</w>": 1081, "ways</w>": 1082, "flutterings</w>": 1083, "family_</w>": 1084, "pieces</w>": 1085, "ailing</w>": 1086, "useless</w>": 1087, "four": 1088, "pain": 1089, "purpose</w>": 1090, "services</w>": 1091, "forbidding</w>": 1092, "S": 1093, "fingering</w>": 1094, "anticipated</w>": 1095, "females</w>": 1096, "till</w>": 1097, "fai": 1098, "mortified</w>": 1099, "sharing</w>": 1100, "our</w>": 1101, "risk</w>": 1102, "Having</w>": 1103, "adopted</w>": 1104, "CHAR": 1105, "avoiding</w>": 1106, "exception</w>": 1107, "apparently</w>": 1108, "possess</w>": 1109, "edged</w>": 1110, "wonder</w>": 1111, "shoot</w>": 1112, "ence</w>": 1113, "masters</w>": 1114, "draughts</w>": 1115, "preci": 1116, "earnestness</w>": 1117, "examine</w>": 1118, "dur": 1119, "reli": 1120, "deserved</w>": 1121, "ables</w>": 1122, "Colonel</w>": 1123, "ady</w>": 1124, "hemence</w>": 1125, "ing": 1126, "decisions</w>": 1127, "reputation</w>": 1128, "©": 1129, "did</w>": 1130, "deserted</w>": 1131, "rou": 1132, "manners</w>": 1133, "awful</w>": 1134, "urely</w>": 1135, "geration</w>": 1136, "threadbare</w>": 1137, "approved</w>": 1138, "moment</w>": 1139, "dishear": 1140, "exclusion</w>": 1141, "hum": 1142, "romanti": 1143, "remove</w>": 1144, "tment</w>": 1145, "promise</w>": 1146, "detect</w>": 1147, "resistance</w>": 1148, "llies</w>": 1149, "liberty</w>": 1150, "world</w>": 1151, "Rosing": 1152, "ampled</w>": 1153, "point</w>": 1154, "sincerity</w>": 1155, "w": 1156, "sman</w>": 1157, "ditions</w>": 1158, "from</w>": 1159, "easing</w>": 1160, "gly</w>": 1161, "failing</w>": 1162, "educated</w>": 1163, "guardian</w>": 1164, "entail</w>": 1165, "bute</w>": 1166, "illness</w>": 1167, "fering</w>": 1168, "fetch</w>": 1169, "hur": 1170, "fortitu": 1171, "heavier</w>": 1172, "retor": 1173, "footing</w>": 1174, "reasonably</w>": 1175, "place</w>": 1176, "forgot</w>": 1177, "connect</w>": 1178, "heavens</w>": 1179, "sations</w>": 1180, "pocrisy</w>": 1181, "fire": 1182, "openness</w>": 1183, "cheerful</w>": 1184, "Miller": 1185, "gratulation</w>": 1186, "begins</w>": 1187, "ourselves</w>": 1188, "universiti": 1189, "fears</w>": 1190, "shameless</w>": 1191, "steadily</w>": 1192, "crammed</w>": 1193, "advanced</w>": 1194, "nature</w>": 1195, "menced</w>": 1196, "amusement</w>": 1197, "thir": 1198, "shoul": 1199, "expectation</w>": 1200, "ensued</w>": 1201, "recital</w>": 1202, "ey</w>": 1203, "were</w>": 1204, "mince</w>": 1205, "disliked</w>": 1206, "hers</w>": 1207, "everybodyâ</w>": 1208, "coat</w>": 1209, "suspect</w>": 1210, "disposition</w>": 1211, "Are</w>": 1212, "amused</w>": 1213, "genuine</w>": 1214, "higher</w>": 1215, "tagonist</w>": 1216, "compre": 1217, "tory</w>": 1218, "fine</w>": 1219, "explaining</w>": 1220, "alteration</w>": 1221, "immediately</w>": 1222, "injured</w>": 1223, "worthi": 1224, "indirect</w>": 1225, "ate": 1226, "insignificance</w>": 1227, "departed</w>": 1228, "prodigi": 1229, "indifferent</w>": 1230, "generate</w>": 1231, "owns</w>": 1232, "gentlemanlike</w>": 1233, "may</w>": 1234, "produced</w>": 1235, "clergy</w>": 1236, "discomposure</w>": 1237, "att": 1238, "front</w>": 1239, "best</w>": 1240, "joke</w>": 1241, "whatever</w>": 1242, "impass": 1243, "covered</w>": 1244, "attend</w>": 1245, "slyness</w>": 1246, "seeing</w>": 1247, "arrog": 1248, "adicted</w>": 1249, "l</w>": 1250, "hen": 1251, "flo": 1252, "By</w>": 1253, "takes</w>": 1254, "agreeable</w>": 1255, "uniform</w>": 1256, "charms</w>": 1257, "exact</w>": 1258, "passing</w>": 1259, "friend</w>": 1260, "nexed</w>": 1261, "King</w>": 1262, "quer</w>": 1263, "perver": 1264, "stout</w>": 1265, "nett": 1266, "ant</w>": 1267, "dirty</w>": 1268, "bets</w>": 1269, "precisely</w>": 1270, "sider</w>": 1271, "encouragement</w>": 1272, "condescension</w>": 1273, "charge</w>": 1274, "GARDINER</w>": 1275, "achable</w>": 1276, "Robinson</w>": 1277, "dee": 1278, "M</w>": 1279, "gratified</w>": 1280, "endeavours</w>": 1281, "loves</w>": 1282, "suppress</w>": 1283, "occurred</w>": 1284, "putting</w>": 1285, "lements</w>": 1286, "fif": 1287, "parting</w>": 1288, "formidable</w>": 1289, "ago</w>": 1290, "secrets</w>": 1291, "poned</w>": 1292, "refusals</w>": 1293, "enjoyments</w>": 1294, "boisterously</w>": 1295, "consider</w>": 1296, "sign</w>": 1297, "/</w>": 1298, "accomplishment</w>": 1299, "natured</w>": 1300, "livery</w>": 1301, "acknowledged</w>": 1302, "parental</w>": 1303, "ft</w>": 1304, "lls</w>": 1305, "ssingly</w>": 1306, "prett": 1307, "begged</w>": 1308, "persuasion</w>": 1309, "endeavour</w>": 1310, "I</w>": 1311, "difficulty</w>": 1312, "entreating</w>": 1313, "pain</w>": 1314, "chief</w>": 1315, "barou": 1316, "ineffec": 1317, "nieces</w>": 1318, "wore</w>": 1319, "necessary</w>": 1320, "abuse</w>": 1321, "Widely</w>": 1322, "fortunately</w>": 1323, "ssening</w>": 1324, "_thre": 1325, "returns</w>": 1326, "lluted</w>": 1327, "began</w>": 1328, "respectability</w>": 1329, "along</w>": 1330, "groom</w>": 1331, "Allow</w>": 1332, "gerous</w>": 1333, "God</w>": 1334, "boy</w>": 1335, "custom</w>": 1336, "intermission</w>": 1337, "attachment</w>": 1338, "carry</w>": 1339, "acquain": 1340, "adorned</w>": 1341, "confidence</w>": 1342, "unfo": 1343, "situation</w>": 1344, "cleared</w>": 1345, "endeavor</w>": 1346, "survived</w>": 1347, "One</w>": 1348, "merited</w>": 1349, "supply</w>": 1350, "drive</w>": 1351, "V": 1352, "George</w>": 1353, "unfold</w>": 1354, "strangers</w>": 1355, "resoun": 1356, "concerned</w>": 1357, "_sur": 1358, "Poor</w>": 1359, "refreshing</w>": 1360, "ake": 1361, "however</w>": 1362, "aden</w>": 1363, "size</w>": 1364, "indifference</w>": 1365, "glen</w>": 1366, "fingers</w>": 1367, "entertained</w>": 1368, "sing</w>": 1369, "ingenuity</w>": 1370, "living</w>": 1371, "hensible</w>": 1372, "llution</w>": 1373, "tranqui": 1374, "hasten</w>": 1375, "decent</w>": 1376, "parents</w>": 1377, "knew</w>": 1378, "imitation</w>": 1379, "stonish": 1380, "presume</w>": 1381, "be": 1382, "meant</w>": 1383, "reflection</w>": 1384, "cheerfulness</w>": 1385, "_know_</w>": 1386, "brevity</w>": 1387, "mechani": 1388, "ari": 1389, "speech</w>": 1390, "asi": 1391, "_do": 1392, "ly</w>": 1393, "impunity</w>": 1394, "instant</w>": 1395, "calmness</w>": 1396, "port</w>": 1397, "stead</w>": 1398, "eties</w>": 1399, "doubted</w>": 1400, "youth</w>": 1401, "mul": 1402, "prejudice</w>": 1403, "somehow</w>": 1404, "ir": 1405, "mistress</w>": 1406, "condescended</w>": 1407, "strange</w>": 1408, "shown</w>": 1409, "confirmation</w>": 1410, "needed</w>": 1411, "plate</w>": 1412, "double</w>": 1413, "procuring</w>": 1414, "sustained</w>": 1415, "journey</w>": 1416, "Her</w>": 1417, "em": 1418, "follows</w>": 1419, "oo</w>": 1420, "derive</w>": 1421, "pleasan": 1422, "sume</w>": 1423, "plain</w>": 1424, "chance</w>": 1425, "hall</w>": 1426, "ney": 1427, "perfect</w>": 1428, "natural</w>": 1429, "such</w>": 1430, "watching</w>": 1431, "cross</w>": 1432, "neighbours</w>": 1433, "tables</w>": 1434, "sprained</w>": 1435, "_Monday</w>": 1436, "frightened</w>": 1437, "beau": 1438, "passage</w>": 1439, "fret</w>": 1440, "comfortless</w>": 1441, "ak": 1442, "agout</w>": 1443, "eth</w>": 1444, "commendations</w>": 1445, "_will_</w>": 1446, "abhorrence</w>": 1447, "suspended</w>": 1448, "occasioned</w>": 1449, "varied</w>": 1450, "mitage</w>": 1451, "anxiety</w>": 1452, "Ar": 1453, "share</w>": 1454, "dinnertime</w>": 1455, "calm</w>": 1456, "bell</w>": 1457, "mir": 1458, "scarcely</w>": 1459, "destitute</w>": 1460, "wholly</w>": 1461, "sixteen</w>": 1462, "steadfastly</w>": 1463, "_would_</w>": 1464, "connection</w>": 1465, "ce</w>": 1466, "contracted</w>": 1467, "dines</w>": 1468, "dener": 1469, "contribute</w>": 1470, "ter": 1471, "pretensions</w>": 1472, "ssly</w>": 1473, "latter</w>": 1474, "civility</w>": 1475, "Do</w>": 1476, "quartered</w>": 1477, "mild</w>": 1478, "condo": 1479, "spiring</w>": 1480, "rec": 1481, "Cour": 1482, "deceitful</w>": 1483, "tection</w>": 1484, "</w>": 1485, "expostulation</w>": 1486, "discussed</w>": 1487, "scale</w>": 1488, "wisher</w>": 1489, "reserve</w>": 1490, "discussion</w>": 1491, "slowly</w>": 1492, "devoted</w>": 1493, "fi": 1494, "enough</w>": 1495, "compen": 1496, "senses</w>": 1497, "simpered</w>": 1498, "ver": 1499, "Only</w>": 1500, "amazed</w>": 1501, "diverted</w>": 1502, "high</w>": 1503, "der</w>": 1504, "every</w>": 1505, "supercili": 1506, "likely</w>": 1507, "husbands</w>": 1508, "provision</w>": 1509, "Fitzwilliamâ</w>": 1510, "stric": 1511, "belonged</w>": 1512, "model</w>": 1513, "marry</w>": 1514, "Ramsgate</w>": 1515, "j": 1516, "trusted</w>": 1517, "sle": 1518, "wait</w>": 1519, "introducing</w>": 1520, "innocent</w>": 1521, "intently</w>": 1522, "suspicious</w>": 1523, "uttered</w>": 1524, "music</w>": 1525, "apply</w>": 1526, "anticipation</w>": 1527, "windows</w>": 1528, "ching</w>": 1529, "le_</w>": 1530, "neat</w>": 1531, "beyond</w>": 1532, "ak</w>": 1533, "Care</w>": 1534, "distri": 1535, "venison</w>": 1536, "qualified</w>": 1537, "paying</w>": 1538, "welfare</w>": 1539, "handed</w>": 1540, "room": 1541, "directions</w>": 1542, "che": 1543, "describing</w>": 1544, "reproof": 1545, "plant</w>": 1546, "check</w>": 1547, "atious</w>": 1548, "unembarrassed</w>": 1549, "habit</w>": 1550, "Bennetâ</w>": 1551, "pping</w>": 1552, "laugh": 1553, "tired</w>": 1554, "meanwhile</w>": 1555, "_that</w>": 1556, "Hear</w>": 1557, "violence</w>": 1558, "serenity</w>": 1559, "firm": 1560, "merit</w>": 1561, "M": 1562, "pleasant</w>": 1563, "once</w>": 1564, "tar</w>": 1565, "Maria</w>": 1566, "examination</w>": 1567, "</w>": 1568, "S</w>": 1569, "born</w>": 1570, "truth</w>": 1571, "scene</w>": 1572, "</w>": 1573, "ER": 1574, "vain</w>": 1575, "matter</w>": 1576, "dupli": 1577, "fill</w>": 1578, "bearing</w>": 1579, "finest</w>": 1580, "_make_</w>": 1581, "scre": 1582, "any</w>": 1583, "considerable</w>": 1584, "poverty</w>": 1585, "prised_</w>": 1586, "Boulan": 1587, "ley</w>": 1588, "yaw": 1589, "practise</w>": 1590, "dupe</w>": 1591, "grieve</w>": 1592, "wandering</w>": 1593, "woman": 1594, "draw</w>": 1595, "we": 1596, "nods</w>": 1597, "back": 1598, "_Her_</w>": 1599, "remarkable</w>": 1600, "watched</w>": 1601, "contain</w>": 1602, "f": 1603, "animation</w>": 1604, "geni": 1605, "presumption</w>": 1606, "quick</w>": 1607, "perce": 1608, "ruled</w>": 1609, "brigh": 1610, "atived</w>": 1611, "bitter</w>": 1612, "sul": 1613, "crowned</w>": 1614, "modern</w>": 1615, "naturedly</w>": 1616, "dly</w>": 1617, "June</w>": 1618, "closed</w>": 1619, "wounded</w>": 1620, "agreement</w>": 1621, "near</w>": 1622, "fitted</w>": 1623, "ss</w>": 1624, "sho": 1625, "superintendence</w>": 1626, "Jenkinsonâ</w>": 1627, "abling</w>": 1628, "modest</w>": 1629, "chard</w>": 1630, "excused</w>": 1631, "impelled</w>": 1632, "appoin": 1633, "goes</w>": 1634, "agreeably</w>": 1635, "unknown</w>": 1636, "discuss</w>": 1637, "seeming</w>": 1638, "confide</w>": 1639, "relled</w>": 1640, "fretfully</w>": 1641, "amongst</w>": 1642, "finery</w>": 1643, "pitiful</w>": 1644, "_hauteur_</w>": 1645, "ju": 1646, "meantime</w>": 1647, "ester": 1648, "begging</w>": 1649, "humanity</w>": 1650, "edings</w>": 1651, "piece</w>": 1652, "ation_</w>": 1653, "inferiority</w>": 1654, "AR": 1655, "home</w>": 1656, "ableness</w>": 1657, "withdrawn</w>": 1658, "concerns</w>": 1659, "Epsom</w>": 1660, "words</w>": 1661, "repentance</w>": 1662, "economi": 1663, "surrounding</w>": 1664, "Couri": 1665, "occupy</w>": 1666, "conscienti": 1667, "mismanagement</w>": 1668, "exigence</w>": 1669, "possession</w>": 1670, "young</w>": 1671, "certainly</w>": 1672, "fit</w>": 1673, "_have_</w>": 1674, "rely</w>": 1675, "pedanti": 1676, "tongue</w>": 1677, "trim": 1678, "spirits</w>": 1679, "profligate</w>": 1680, "ting</w>": 1681, "oper": 1682, "overhear</w>": 1683, "intentions</w>": 1684, "inured</w>": 1685, "ck</w>": 1686, "abundant</w>": 1687, "pal": 1688, "CHAPTER</w>": 1689, "the</w>": 1690, "peopleâ</w>": 1691, "ti": 1692, "kes</w>": 1693, "mpor": 1694, "morning</w>": 1695, "haunt</w>": 1696, "prevail</w>": 1697, "much</w>": 1698, "affair</w>": 1699, "sigh</w>": 1700, "enabled</w>": 1701, "tires</w>": 1702, "approve</w>": 1703, "delights</w>": 1704, "charming</w>": 1705, "Both</w>": 1706, "retained</w>": 1707, "Gardinerâ</w>": 1708, "garden</w>": 1709, "designs</w>": 1710, "leness</w>": 1711, "concern</w>": 1712, "owned</w>": 1713, "small</w>": 1714, "weak</w>": 1715, "e</w>": 1716, "fun</w>": 1717, "spiritless</w>": 1718, "avenu": 1719, "steward</w>": 1720, "murs</w>": 1721, "succeed</w>": 1722, "cordiality</w>": 1723, "condescend</w>": 1724, "petitioned</w>": 1725, "Lizzy</w>": 1726, "management</w>": 1727, "ser</w>": 1728, "fel": 1729, "period</w>": 1730, "misrepresented</w>": 1731, "hill</w>": 1732, "introduction</w>": 1733, "ost</w>": 1734, "thanks</w>": 1735, "avoid</w>": 1736, "sp": 1737, "fic": 1738, "revived</w>": 1739, "wish</w>": 1740, "amid</w>": 1741, "popularity</w>": 1742, "occur</w>": 1743, "ocrity</w>": 1744, "bottle</w>": 1745, "occasions</w>": 1746, "intim": 1747, "mprudent</w>": 1748, "apothecary</w>": 1749, "cy</w>": 1750, "Chan": 1751, "teased</w>": 1752, "explanation</w>": 1753, "joy</w>": 1754, "liber": 1755, "cu": 1756, "making</w>": 1757, "distr": 1758, "yesterday</w>": 1759, "whether</w>": 1760, "defied</w>": 1761, "gust</w>": 1762, "subject</w>": 1763, "disservice</w>": 1764, "lose</w>": 1765, "reasoning</w>": 1766, "ble</w>": 1767, "aceâ</w>": 1768, "afforded</w>": 1769, "imagin": 1770, "benefiting</w>": 1771, "aled</w>": 1772, "class</w>": 1773, "myself</w>": 1774, "wilful</w>": 1775, "agitating</w>": 1776, "guests</w>": 1777, "behave</w>": 1778, "listened</w>": 1779, "January</w>": 1780, "menting</w>": 1781, "doors</w>": 1782, "ul": 1783, "niece</w>": 1784, "_must_</w>": 1785, "far": 1786, "Copyright</w>": 1787, "plan": 1788, "dictate</w>": 1789, "ldly</w>": 1790, "propriety</w>": 1791, "complaisance</w>": 1792, "co</w>": 1793, "modesty</w>": 1794, "uneasy</w>": 1795, "ch": 1796, "Removed</w>": 1797, "abrup": 1798, "gesting</w>": 1799, "forming</w>": 1800, "partri": 1801, "sen": 1802, "athing</w>": 1803, "addresses</w>": 1804, "none</w>": 1805, "awkwardness</w>": 1806, "litt": 1807, "residence</w>": 1808, "hates</w>": 1809, "brings</w>": 1810, "oning</w>": 1811, "siti": 1812, "state</w>": 1813, "strug": 1814, "ll</w>": 1815, "pen</w>": 1816, "resolution</w>": 1817, "felt</w>": 1818, "pretending</w>": 1819, "sists</w>": 1820, "lly</w>": 1821, "tay</w>": 1822, "grapes</w>": 1823, "drink</w>": 1824, "begin</w>": 1825, "coolly</w>": 1826, "chen</w>": 1827, "insensibility</w>": 1828, "display</w>": 1829, "sence</w>": 1830, "interview</w>": 1831, "gul": 1832, "eloquent</w>": 1833, "course</w>": 1834, "eminence</w>": 1835, "propose</w>": 1836, "protested</w>": 1837, "duc": 1838, "glory</w>": 1839, "rever": 1840, "absur": 1841, "With</w>": 1842, "splendid</w>": 1843, "succession</w>": 1844, "release</w>": 1845, "mixed</w>": 1846, "appointed</w>": 1847, "intrusion</w>": 1848, "plead</w>": 1849, "dgets</w>": 1850, "uncertainty</w>": 1851, "kissed</w>": 1852, "expec": 1853, "2": 1854, "for</w>": 1855, "Louisa</w>": 1856, "superior</w>": 1857, "darting</w>": 1858, "{</w>": 1859, "increased</w>": 1860, "effec": 1861, "fronted</w>": 1862, "inflic": 1863, "suiting</w>": 1864, "blue</w>": 1865, "stared</w>": 1866, "vene</w>": 1867, "heads</w>": 1868, "ener": 1869, "dants</w>": 1870, "without</w>": 1871, "heavy</w>": 1872, "deep</w>": 1873, "playfulness</w>": 1874, "fuseness</w>": 1875, "Denny</w>": 1876, "position</w>": 1877, "brotherâ</w>": 1878, "affor": 1879, "injuring</w>": 1880, "trou": 1881, "performed</w>": 1882, "bears</w>": 1883, "astly</w>": 1884, "advantages</w>": 1885, "bonnet</w>": 1886, "pence</w>": 1887, "_Mr</w>": 1888, "allowance</w>": 1889, "distur": 1890, "lan": 1891, "indignant</w>": 1892, "standing</w>": 1893, "h": 1894, "tened</w>": 1895, "histori": 1896, "dents</w>": 1897, "blame</w>": 1898, "acelets</w>": 1899, "diminished</w>": 1900, "anity</w>": 1901, "conclude</w>": 1902, "ungracious</w>": 1903, "beloved</w>": 1904, "aloon</w>": 1905, "interrupting</w>": 1906, "Un": 1907, "eus</w>": 1908, "dishonesty</w>": 1909, "this</w>": 1910, "experience</w>": 1911, "An</w>": 1912, "instances</w>": 1913, "looking</w>": 1914, "pales</w>": 1915, "was</w>": 1916, "husbandâ</w>": 1917, "larger</w>": 1918, "scorn</w>": 1919, "exclu": 1920, "cising</w>": 1921, "uniting</w>": 1922, "imperfectly</w>": 1923, "extraordinary</w>": 1924, "direct</w>": 1925, "gli": 1926, "per": 1927, "ything</w>": 1928, "gro": 1929, "repel</w>": 1930, "eminent</w>": 1931, "completion</w>": 1932, "having</w>": 1933, "breeding</w>": 1934, "denti": 1935, "wits</w>": 1936, "human</w>": 1937, "bition</w>": 1938, "_I_</w>": 1939, "liked</w>": 1940, "observan": 1941, "carriages</w>": 1942, "lines</w>": 1943, "vi": 1944, "turning</w>": 1945, "arity</w>": 1946, "resolved</w>": 1947, "nowingly</w>": 1948, "sister</w>": 1949, "gratitude</w>": 1950, "Well</w>": 1951, "procured</w>": 1952, "mon</w>": 1953, "number</w>": 1954, "talking</w>": 1955, "li": 1956, "Thank</w>": 1957, "wedding</w>": 1958, "ful</w>": 1959, "ted</w>": 1960, "purport</w>": 1961, "atten": 1962, "sheet</w>": 1963, "studying</w>": 1964, "shock</w>": 1965, "time</w>": 1966, "emphati": 1967, "paused</w>": 1968, "disclaim</w>": 1969, "ridiculous</w>": 1970, "list</w>": 1971, "topics</w>": 1972, "Here</w>": 1973, "punctual</w>": 1974, "kind</w>": 1975, "thirty</w>": 1976, "obtained</w>": 1977, "bru": 1978, "nerves</w>": 1979, "preserved</w>": 1980, "ast": 1981, "sentiment_</w>": 1982, "D</w>": 1983, "cap": 1984, "gain</w>": 1985, "wonderful</w>": 1986, "tailed</w>": 1987, "apology</w>": 1988, "office</w>": 1989, "convinced</w>": 1990, "beheld</w>": 1991, "deceive</w>": 1992, "confined</w>": 1993, "vanity</w>": 1994, "aced</w>": 1995, "insure</w>": 1996, "morning": 1997, "rain</w>": 1998, "_You_</w>": 1999, "disgr": 2000, "alarming</w>": 2001, "pen": 2002, "solely</w>": 2003, "continual</w>": 2004, "dure</w>": 2005, "vicious</w>": 2006, "curio": 2007, "ust</w>": 2008, "use</w>": 2009, "terms</w>": 2010, "dead</w>": 2011, "nobody</w>": 2012, "by</w>": 2013, "took</w>": 2014, "remark</w>": 2015, "beque": 2016, "preclu": 2017, "ttention</w>": 2018, "undo</w>": 2019, "pointing</w>": 2020, "rs</w>": 2021, "arring": 2022, "prise</w>": 2023, "_you_</w>": 2024, "inquire</w>": 2025, "article</w>": 2026, "regularly</w>": 2027, "stret": 2028, "onour": 2029, "This</w>": 2030, "upper</w>": 2031, "For": 2032, "five</w>": 2033, "accompanying</w>": 2034, "Who</w>": 2035, "somewhere</w>": 2036, "good</w>": 2037, "noticed</w>": 2038, "owe</w>": 2039, "exertion</w>": 2040, "dained</w>": 2041, "lation</w>": 2042, "faced</w>": 2043, "go": 2044, "walking</w>": 2045, "atter": 2046, "flown</w>": 2047, "carefully</w>": 2048, "attracted</w>": 2049, "oulding</w>": 2050, "pend</w>": 2051, "crossing</w>": 2052, "fifty</w>": 2053, "hoods</w>": 2054, "sofas</w>": 2055, "Parsonage</w>": 2056, "dic": 2057, "asis</w>": 2058, "more</w>": 2059, "employment</w>": 2060, "affect</w>": 2061, "ling</w>": 2062, "Younge</w>": 2063, "allevi": 2064, "pped</w>": 2065, "ner": 2066, "officer</w>": 2067, "conjectures</w>": 2068, "suggest</w>": 2069, "reasons</w>": 2070, "visible</w>": 2071, "favourite</w>": 2072, "sal</w>": 2073, "aching</w>": 2074, "effort</w>": 2075, "ser": 2076, "resolutely</w>": 2077, "insignificant</w>": 2078, "total</w>": 2079, "lement</w>": 2080, "relationship</w>": 2081, "appears</w>": 2082, "waited</w>": 2083, "nor</w>": 2084, "spect</w>": 2085, "partial</w>": 2086, "social</w>": 2087, "als</w>": 2088, "preaching</w>": 2089, "creditors</w>": 2090, "assed</w>": 2091, "tarines</w>": 2092, "civilities</w>": 2093, "cur": 2094, "aw": 2095, "soon</w>": 2096, "comparison</w>": 2097, "_are_</w>": 2098, "Everybody</w>": 2099, "looks</w>": 2100, "seek</w>": 2101, "stone</w>": 2102, "ring</w>": 2103, "offers</w>": 2104, "playful</w>": 2105, "roo": 2106, "relates</w>": 2107, "esteemed</w>": 2108, "contri": 2109, "non": 2110, "paid</w>": 2111, "Promise</w>": 2112, "dearest</w>": 2113, "ject</w>": 2114, "attach</w>": 2115, "noble</w>": 2116, "ved</w>": 2117, "stead": 2118, "all": 2119, "consul": 2120, "terested</w>": 2121, "strenu": 2122, "ghing</w>": 2123, "upbr": 2124, "captivation</w>": 2125, "seem</w>": 2126, "ssest</w>": 2127, "being</w>": 2128, "debts</w>": 2129, "grow": 2130, "overtaken</w>": 2131, "ceremonious</w>": 2132, "discerni": 2133, "directly</w>": 2134, "than</w>": 2135, "motives</w>": 2136, "early</w>": 2137, "predict</w>": 2138, "mornings</w>": 2139, "composure</w>": 2140, "boys</w>": 2141, "supposition</w>": 2142, "convert</w>": 2143, "lenced</w>": 2144, "deference</w>": 2145, "incredulity</w>": 2146, "reflections</w>": 2147, "Excellent</w>": 2148, "requited</w>": 2149, "_mu": 2150, "cup</w>": 2151, "expectations</w>": 2152, "From</w>": 2153, "occur": 2154, "hance</w>": 2155, "ving</w>": 2156, "towards</w>": 2157, "selected</w>": 2158, "trim</w>": 2159, "tels</w>": 2160, "meet</w>": 2161, "which</w>": 2162, "taught</w>": 2163, "bore</w>": 2164, "influence</w>": 2165, "warmly</w>": 2166, "Tease</w>": 2167, "successor</w>": 2168, "secured</w>": 2169, "tingly</w>": 2170, "awed</w>": 2171, "reflected</w>": 2172, "accordingly</w>": 2173, "reasonable</w>": 2174, "ame</w>": 2175, "_do_</w>": 2176, "happy</w>": 2177, "distrusted</w>": 2178, "necessity</w>": 2179, "heigh": 2180, "lled</w>": 2181, "t": 2182, "acknowledge</w>": 2183, "grown</w>": 2184, "Excuse</w>": 2185, "are</w>": 2186, "pure</w>": 2187, "near": 2188, "proceeding</w>": 2189, "ating</w>": 2190, "pursu": 2191, "favours</w>": 2192, "name</w>": 2193, "won</w>": 2194, "roun": 2195, "in": 2196, "lessness</w>": 2197, "nobodyâ</w>": 2198, "change</w>": 2199, "prudence</w>": 2200, "reason</w>": 2201, "agitated</w>": 2202, "minuteness</w>": 2203, "dinners</w>": 2204, "opposition</w>": 2205, "delicacy</w>": 2206, "pains</w>": 2207, "laughed</w>": 2208, "intimate</w>": 2209, "happen</w>": 2210, "heal</w>": 2211, "teen</w>": 2212, "allowing</w>": 2213, "ders</w>": 2214, "Though</w>": 2215, "daily</w>": 2216, "fresh</w>": 2217, "talk</w>": 2218, "spec": 2219, "benefited</w>": 2220, "heartily</w>": 2221, "evening</w>": 2222, "likes</w>": 2223, "extreme</w>": 2224, "softened</w>": 2225, "stacles</w>": 2226, "eligible</w>": 2227, "require</w>": 2228, "compassion</w>": 2229, "way</w>": 2230, "s</w>": 2231, "madam</w>": 2232, "apprehen": 2233, "Indeed</w>": 2234, "fain": 2235, "horseâ</w>": 2236, "dis": 2237, "arrival</w>": 2238, "work</w>": 2239, "compass</w>": 2240, "interest</w>": 2241, "tri": 2242, "pleased</w>": 2243, "arguments</w>": 2244, "sit</w>": 2245, "omitted</w>": 2246, "clearer</w>": 2247, "ager</w>": 2248, "offending</w>": 2249, "contr": 2250, "dan": 2251, "knowledge</w>": 2252, "ceâ</w>": 2253, "duties</w>": 2254, "counteracted</w>": 2255, "horse": 2256, "Because</w>": 2257, "temp": 2258, "lot</w>": 2259, "backgammon</w>": 2260, "d": 2261, "repeated</w>": 2262, "detaining</w>": 2263, "remains</w>": 2264, "Dining</w>": 2265, "him</w>": 2266, "disgusting</w>": 2267, "who</w>": 2268, "ristening</w>": 2269, "tents</w>": 2270, "admired</w>": 2271, "teach</w>": 2272, "minutest</w>": 2273, "oned</w>": 2274, "son</w>": 2275, "history</w>": 2276, "ttagers</w>": 2277, "visitors</w>": 2278, "bodi": 2279, "amping</w>": 2280, "disinclined</w>": 2281, "arrange</w>": 2282, "ridicule</w>": 2283, "out": 2284, "Lydiaâ</w>": 2285, "her</w>": 2286, "_k": 2287, "requiring</w>": 2288, "bewit": 2289, "enter</w>": 2290, "IX</w>": 2291, "liable</w>": 2292, "sof": 2293, "when": 2294, "agree</w>": 2295, "intention</w>": 2296, "dependence</w>": 2297, "To</w>": 2298, "bering</w>": 2299, "grati": 2300, "tal": 2301, "vocal</w>": 2302, "valued</w>": 2303, "crushing</w>": 2304, "obliged</w>": 2305, "caution</w>": 2306, "alls</w>": 2307, "comfortably</w>": 2308, "beg</w>": 2309, "viewing</w>": 2310, "asserted</w>": 2311, "wondered</w>": 2312, "feet</w>": 2313, "soo": 2314, "untinc": 2315, "assisted</w>": 2316, "Whether</w>": 2317, "silence</w>": 2318, "sonâ</w>": 2319, "daresay</w>": 2320, "abour</w>": 2321, "sett": 2322, "Amon": 2323, "only</w>": 2324, "mistakes</w>": 2325, "own</w>": 2326, "review</w>": 2327, "schemes</w>": 2328, "unequally</w>": 2329, "impl": 2330, "testimon": 2331, "onable</w>": 2332, "ittle</w>": 2333, "por": 2334, "ope</w>": 2335, "Remember</w>": 2336, "with": 2337, "eless</w>": 2338, "awings</w>": 2339, "portraits</w>": 2340, "th</w>": 2341, "theirs</w>": 2342, "satisfied</w>": 2343, "avowal</w>": 2344, "dar": 2345, "hastily</w>": 2346, "glad</w>": 2347, "sne": 2348, "deligh": 2349, "acquired</w>": 2350, "recur": 2351, "derived</w>": 2352, "tem": 2353, "_her": 2354, "witti": 2355, "mansion</w>": 2356, "aling</w>": 2357, "med</w>": 2358, "exhi": 2359, "ined</w>": 2360, "affairs</w>": 2361, "formation</w>": 2362, "carried</w>": 2363, "happiness</w>": 2364, "white</w>": 2365, "conceive</w>": 2366, "feature</w>": 2367, "portr": 2368, "haunch</w>": 2369, "premeditated</w>": 2370, "conv": 2371, "grove</w>": 2372, "Dearest</w>": 2373, "personal</w>": 2374, "ssing</w>": 2375, "according</w>": 2376, "congratulation</w>": 2377, "Vain</w>": 2378, "chan": 2379, "misled</w>": 2380, "privileged</w>": 2381, "Society</w>": 2382, "ariti": 2383, "athers</w>": 2384, "threw</w>": 2385, "wallowed</w>": 2386, "formed</w>": 2387, "transactions</w>": 2388, "thre": 2389, "address</w>": 2390, "engagements</w>": 2391, "fin</w>": 2392, "ated</w>": 2393, "child</w>": 2394, "son": 2395, "cement</w>": 2396, "orders</w>": 2397, "angel</w>": 2398, "perusing</w>": 2399, "supposed</w>": 2400, "caprice</w>": 2401, "utter": 2402, "any": 2403, "his</w>": 2404, "p": 2405, "Monday</w>": 2406, "belongs</w>": 2407, "amp</w>": 2408, "excepting</w>": 2409, "overthrow</w>": 2410, "Every</w>": 2411, "ut</w>": 2412, "vou": 2413, "pleasantest</w>": 2414, "lived</w>": 2415, "Jones</w>": 2416, "whole</w>": 2417, "fy</w>": 2418, "sink</w>": 2419, "alarm</w>": 2420, "whence</w>": 2421, "super": 2422, "enor": 2423, "avari": 2424, "that</w>": 2425, "ase": 2426, "foretold</w>": 2427, "smoo": 2428, "pri": 2429, "appearing</w>": 2430, "atively</w>": 2431, "announce</w>": 2432, "sequenti": 2433, "industri": 2434, "Lucases</w>": 2435, "idea</w>": 2436, "especially</w>": 2437, "circle</w>": 2438, "bequest</w>": 2439, "momentâ</w>": 2440, "ption</w>": 2441, "arranging</w>": 2442, "own": 2443, "brilliancy</w>": 2444, "scandalous</w>": 2445, "finally</w>": 2446, "corner</w>": 2447, "miserable</w>": 2448, "previous</w>": 2449, "audi": 2450, "later</w>": 2451, "hastening</w>": 2452, "anecdo": 2453, "hour</w>": 2454, "pu": 2455, "cise</w>": 2456, "illustration</w>": 2457, "everything</w>": 2458, "transi": 2459, "ger</w>": 2460, "len": 2461, "preparing</w>": 2462, "suffer</w>": 2463, "ere</w>": 2464, "scheme</w>": 2465, "keep</w>": 2466, "perceiving</w>": 2467, "petulance</w>": 2468, "scarlet</w>": 2469, "restrained</w>": 2470, "displayed</w>": 2471, "_missish": 2472, "": 2473, "answers</w>": 2474, "bills</w>": 2475, "amiable</w>": 2476, "checked</w>": 2477, "choose</w>": 2478, "impression</w>": 2479, "observe</w>": 2480, "excessively</w>": 2481, "esce</w>": 2482, "falsehood</w>": 2483, "subsisting</w>": 2484, "impartial</w>": 2485, "score</w>": 2486, "communications</w>": 2487, "distant</w>": 2488, "neighbour": 2489, "paddock</w>": 2490, "vanished</w>": 2491, "fair": 2492, "appiness</w>": 2493, "tempered</w>": 2494, "beneficence</w>": 2495, "live</w>": 2496, "husband</w>": 2497, "amazement</w>": 2498, "disappointing</w>": 2499, "conveyed</w>": 2500, "fl": 2501, "excited</w>": 2502, "support</w>": 2503, "clergyman</w>": 2504, "acious</w>": 2505, "master</w>": 2506, "_man": 2507, "source</w>": 2508, "witne": 2509, "simpleton</w>": 2510, "quest</w>": 2511, "resentment</w>": 2512, "inevitable</w>": 2513, "chases</w>": 2514, "adapted</w>": 2515, "acquaintance</w>": 2516, "thoughtful</w>": 2517, "digre": 2518, "their</w>": 2519, "apologized</w>": 2520, "steadiness</w>": 2521, "rific</w>": 2522, "regarded</w>": 2523, "girls</w>": 2524, "diminution</w>": 2525, "blow": 2526, "L": 2527, "lately</w>": 2528, "elop": 2529, "preferred</w>": 2530, "teasing</w>": 2531, "hardest</w>": 2532, "capers</w>": 2533, "reconsidering</w>": 2534, "tells</w>": 2535, "XX": 2536, "bare</w>": 2537, "recede</w>": 2538, "made</w>": 2539, "ritated</w>": 2540, "reject</w>": 2541, "those</w>": 2542, "induce</w>": 2543, "jestingly</w>": 2544, "You</w>": 2545, "smart</w>": 2546, "Collin": 2547, "woods</w>": 2548, "partake</w>": 2549, "unreasonable</w>": 2550, "investig": 2551, "horse</w>": 2552, "accur": 2553, "glect</w>": 2554, "consolation</w>": 2555, "accurate</w>": 2556, "Philipsâ</w>": 2557, "Scotch</w>": 2558, "kept</w>": 2559, "Most</w>": 2560, "imputed</w>": 2561, "rapidly</w>": 2562, "perceive</w>": 2563, "tempted</w>": 2564, "complaining</w>": 2565, "entailed</w>": 2566, "evable</w>": 2567, "progress</w>": 2568, "child_</w>": 2569, "would</w>": 2570, "odd</w>": 2571, "governess</w>": 2572, "players</w>": 2573, "instrument</w>": 2574, "win": 2575, "noise</w>": 2576, "Jonesâ</w>": 2577, "re": 2578, "housekeeper</w>": 2579, "acquisition</w>": 2580, "titu": 2581, "engro": 2582, "undeserving</w>": 2583, "mps</w>": 2584, "elevation</w>": 2585, "cence</w>": 2586, "fortnightâ</w>": 2587, "letters</w>": 2588, "freck": 2589, "gaily</w>": 2590, "narrow</w>": 2591, "destru": 2592, "deeper</w>": 2593, "nay</w>": 2594, "justing</w>": 2595, "rame</w>": 2596, "tallest</w>": 2597, "needless</w>": 2598, "since</w>": 2599, "ation</w>": 2600, "flattered</w>": 2601, "distress</w>": 2602, "treasure</w>": 2603, "shocking</w>": 2604, "thereby</w>": 2605, "guine": 2606, "rish</w>": 2607, "beauties</w>": 2608, "fender</w>": 2609, "uncontro": 2610, "low</w>": 2611, "censure</w>": 2612, "spend</w>": 2613, "never</w>": 2614, "fortunes</w>": 2615, "guided</w>": 2616, "hor": 2617, "hurt</w>": 2618, "sur": 2619, "descended</w>": 2620, "impenetrably</w>": 2621, "_mo": 2622, "mi": 2623, "overthrown</w>": 2624, "begs</w>": 2625, "happening</w>": 2626, "sufficient</w>": 2627, "Oc": 2628, "forms</w>": 2629, "Lodge</w>": 2630, "sharpened</w>": 2631, "hardly</w>": 2632, "cannot</w>": 2633, "summer</w>": 2634, "utmost</w>": 2635, "invite</w>": 2636, "faint</w>": 2637, "conclu": 2638, "agoni": 2639, "years</w>": 2640, "lent</w>": 2641, "busy</w>": 2642, "VIII</w>": 2643, "stranger</w>": 2644, "_their_</w>": 2645, "toi": 2646, "console</w>": 2647, "Co": 2648, "adopt</w>": 2649, "loo</w>": 2650, "collection</w>": 2651, "recover</w>": 2652, "deal</w>": 2653, "af": 2654, "adows</w>": 2655, "water</w>": 2656, "politeness</w>": 2657, "_your_</w>": 2658, "bery</w>": 2659, "persisted</w>": 2660, "cherish</w>": 2661, "opposite</w>": 2662, "a</w>": 2663, "hundred</w>": 2664, "stentation</w>": 2665, "could_</w>": 2666, "retailing</w>": 2667, "ladyâ</w>": 2668, "perverseness</w>": 2669, "inviting</w>": 2670, "break</w>": 2671, "shaking</w>": 2672, "dispose</w>": 2673, "farther</w>": 2674, "accomplished</w>": 2675, "generally</w>": 2676, "ased</w>": 2677, "mises</w>": 2678, "demand</w>": 2679, "mere</w>": 2680, "unwelcome</w>": 2681, "vals</w>": 2682, "disgusted</w>": 2683, "encourage</w>": 2684, "means</w>": 2685, "dependent</w>": 2686, "posterity</w>": 2687, "defy</w>": 2688, "glance</w>": 2689, "weep</w>": 2690, "symp": 2691, "ecuted</w>": 2692, "vious</w>": 2693, "spran": 2694, "haves</w>": 2695, "Christi": 2696, "furniture</w>": 2697, "herself</w>": 2698, "vin": 2699, "reve": 2700, "frank": 2701, "ast</w>": 2702, "tfully</w>": 2703, "ladiesâ</w>": 2704, "thoughts</w>": 2705, "surmise</w>": 2706, "post": 2707, "behaviour</w>": 2708, "quet</w>": 2709, "Gran": 2710, "moderation</w>": 2711, "right</w>": 2712, "?</w>": 2713, "ne</w>": 2714, "acken</w>": 2715, "Jenkinson</w>": 2716, "tupi": 2717, "similarity</w>": 2718, "bow</w>": 2719, "Collins</w>": 2720, "muslins</w>": 2721, "hunting</w>": 2722, "compli": 2723, "smirks</w>": 2724, "consistency</w>": 2725, "feared</w>": 2726, "longer</w>": 2727, "planning</w>": 2728, "say</w>": 2729, "six</w>": 2730, "ed": 2731, "About</w>": 2732, "amidst</w>": 2733, "expenses</w>": 2734, "numerous</w>": 2735, "O</w>": 2736, "servan": 2737, "hack": 2738, "raised</w>": 2739, "throwing</w>": 2740, "ali": 2741, "ent</w>": 2742, "abroad</w>": 2743, "embarrassed</w>": 2744, "reading</w>": 2745, "against</w>": 2746, "originally</w>": 2747, "associ": 2748, "beginning</w>": 2749, "shameful</w>": 2750, "brother</w>": 2751, "attribute</w>": 2752, "smile</w>": 2753, "secretly</w>": 2754, "lay</w>": 2755, "started</w>": 2756, "sitting</w>": 2757, "La</w>": 2758, "patience</w>": 2759, "assembly</w>": 2760, "employ</w>": 2761, "women": 2762, "ateness</w>": 2763, "scheme_</w>": 2764, "tÃªte_</w>": 2765, "market</w>": 2766, "inquiry</w>": 2767, "eloped</w>": 2768, "appetite</w>": 2769, "contrary</w>": 2770, "scolding</w>": 2771, "aloud</w>": 2772, "blow</w>": 2773, "cordially</w>": 2774, "II</w>": 2775, "good_</w>": 2776, "cler": 2777, "headstrong</w>": 2778, "opportunity</w>": 2779, "solidity</w>": 2780, "discouraged</w>": 2781, "ecstasy</w>": 2782, "spur</w>": 2783, "despised</w>": 2784, "mouth</w>": 2785, "noblest</w>": 2786, "exclaiming</w>": 2787, "unguarded</w>": 2788, "divide</w>": 2789, "forget</w>": 2790, "joined</w>": 2791, "Lizzie</w>": 2792, "twenty</w>": 2793, "readiness</w>": 2794, "claimed</w>": 2795, "ather</w>": 2796, "hackney</w>": 2797, "afety</w>": 2798, "Kitty</w>": 2799, "created</w>": 2800, "witty</w>": 2801, "sickly</w>": 2802, "cham": 2803, "insinu": 2804, "prev": 2805, "bling</w>": 2806, "mu": 2807, "ming</w>": 2808, "stitute</w>": 2809, "sole</w>": 2810, "delivering</w>": 2811, "elded</w>": 2812, "Yours</w>": 2813, "amed</w>": 2814, "imitate</w>": 2815, "removed</w>": 2816, "fold</w>": 2817, "contained</w>": 2818, "prettier</w>": 2819, "constantly</w>": 2820, "truly</w>": 2821, "thorou": 2822, "puzzle</w>": 2823, "winter</w>": 2824, "wret": 2825, "Ni": 2826, "pation</w>": 2827, "horror</w>": 2828, "dischar": 2829, "backed</w>": 2830, "greater</w>": 2831, "implied</w>": 2832, "imply</w>": 2833, "slow</w>": 2834, "retired</w>": 2835, "enemy</w>": 2836, "dayâ</w>": 2837, "represented</w>": 2838, "hate</w>": 2839, "can": 2840, "avours</w>": 2841, "newest</w>": 2842, "spite</w>": 2843, "annum</w>": 2844, "slightest</w>": 2845, "urged</w>": 2846, "unwillingly</w>": 2847, "test</w>": 2848, "transpor": 2849, "betray</w>": 2850, "aâ</w>": 2851, "lovely</w>": 2852, "dget</w>": 2853, "easy</w>": 2854, "Com": 2855, "distrust</w>": 2856, "moderate</w>": 2857, "priz": 2858, "Lakes</w>": 2859, "witnessed</w>": 2860, "Merely</w>": 2861, "wor": 2862, "fourth</w>": 2863, "rejecting</w>": 2864, "convey</w>": 2865, "remon": 2866, "Without</w>": 2867, "dropped</w>": 2868, "billi": 2869, "feverish</w>": 2870, "circumspection</w>": 2871, "tâ</w>": 2872, "stupidity</w>": 2873, "ritable</w>": 2874, "warm</w>": 2875, "collect</w>": 2876, "attach": 2877, "kiss</w>": 2878, "Fe": 2879, "involved</w>": 2880, "themâ</w>": 2881, "superinten": 2882, "Will</w>": 2883, "ceforth</w>": 2884, "rings</w>": 2885, "yourselves</w>": 2886, "able_</w>": 2887, "scold</w>": 2888, "bl": 2889, "food_</w>": 2890, "pitied</w>": 2891, "ainous</w>": 2892, "earnestly</w>": 2893, "acceding</w>": 2894, "ature</w>": 2895, "upstairs</w>": 2896, "ligence</w>": 2897, "Wherever</w>": 2898, "propen": 2899, "watchfulness</w>": 2900, "serious</w>": 2901, "breach</w>": 2902, "learn</w>": 2903, "affected</w>": 2904, "unusual</w>": 2905, "attentions</w>": 2906, "le</w>": 2907, "contents</w>": 2908, "reserved</w>": 2909, "Å": 2910, "mend</w>": 2911, "shape</w>": 2912, "increasing</w>": 2913, "constant</w>": 2914, "came</w>": 2915, "alter</w>": 2916, "refusing</w>": 2917, "feels</w>": 2918, "crowded</w>": 2919, "ty</w>": 2920, "know</w>": 2921, "doubt</w>": 2922, "eying</w>": 2923, "complaint</w>": 2924, "driving</w>": 2925, "sets</w>": 2926, "Mari": 2927, "tack": 2928, "miniatures</w>": 2929, "sum": 2930, "uncivil</w>": 2931, "inclined</w>": 2932, "courting</w>": 2933, "colonel</w>": 2934, "expected</w>": 2935, "ced</w>": 2936, "_dislike_</w>": 2937, "reproach</w>": 2938, "accede</w>": 2939, "pr": 2940, "^</w>": 2941, "_is_</w>": 2942, "A</w>": 2943, "hesitated</w>": 2944, "of": 2945, "least</w>": 2946, "repaired</w>": 2947, "existence</w>": 2948, "defiance</w>": 2949, "sent</w>": 2950, "displeasure</w>": 2951, "ssively</w>": 2952, "N": 2953, "inclination</w>": 2954, "also</w>": 2955, "echo</w>": 2956, "conference</w>": 2957, "diffident</w>": 2958, "younger</w>": 2959, "composed</w>": 2960, "Derbyshire</w>": 2961, "trans": 2962, "masterâ</w>": 2963, "public</w>": 2964, "cried</w>": 2965, "ssened</w>": 2966, "turous</w>": 2967, "walks</w>": 2968, "wels</w>": 2969, "hot</w>": 2970, "answer</w>": 2971, "sparkled</w>": 2972, "horseback</w>": 2973, "communicate</w>": 2974, "indignity</w>": 2975, "containing</w>": 2976, "opening</w>": 2977, "convenient</w>": 2978, "application</w>": 2979, "acknowledgment</w>": 2980, "condem": 2981, "used</w>": 2982, "heretofore</w>": 2983, "suf": 2984, "mischief</w>": 2985, "has</w>": 2986, "but": 2987, "force</w>": 2988, "pur": 2989, "hurry</w>": 2990, "honoured</w>": 2991, "fixing</w>": 2992, "had</w>": 2993, "bidding</w>": 2994, "money</w>": 2995, "A": 2996, "tones</w>": 2997, "nar": 2998, "actions</w>": 2999, "divided</w>": 3000, "extracts</w>": 3001, "animated</w>": 3002, "trust</w>": 3003, "superi": 3004, "poured</w>": 3005, "considerations</w>": 3006, "pressed</w>": 3007, "_one_</w>": 3008, "reached</w>": 3009, "sug": 3010, "atness</w>": 3011, "adequ": 3012, "driven</w>": 3013, "remained</w>": 3014, "pleasure</w>": 3015, "north</w>": 3016, "undoubtedly</w>": 3017, "asted</w>": 3018, "gives</w>": 3019, "comfortable</w>": 3020, "Very</w>": 3021, "choice</w>": 3022, "step</w>": 3023, "surprised</w>": 3024, "cheering</w>": 3025, "consequence</w>": 3026, "guest</w>": 3027, "introduced</w>": 3028, "aliz": 3029, "Tis</w>": 3030, "inhabitants</w>": 3031, "friend": 3032, "contented</w>": 3033, "children</w>": 3034, "quite</w>": 3035, "ac": 3036, "decide</w>": 3037, "anish</w>": 3038, "strongly</w>": 3039, "followed</w>": 3040, "manâ</w>": 3041, "inferior</w>": 3042, "deception</w>": 3043, "age</w>": 3044, "sation</w>": 3045, "com": 3046, "occupation</w>": 3047, "ade": 3048, "loveliness</w>": 3049, "appeal</w>": 3050, "adieu</w>": 3051, "commendation</w>": 3052, "cal</w>": 3053, "wandered</w>": 3054, "befall</w>": 3055, "invariably</w>": 3056, "ding</w>": 3057, "former</w>": 3058, "entreated</w>": 3059, "_my</w>": 3060, "retreating</w>": 3061, "completed</w>": 3062, "sion</w>": 3063, "calm": 3064, "neglecting</w>": 3065, "dently</w>": 3066, "dictated</w>": 3067, "affectionately</w>": 3068, "hurried</w>": 3069, "ton": 3070, "acutely</w>": 3071, "Four</w>": 3072, "very</w>": 3073, "ex": 3074, "No</w>": 3075, "worse</w>": 3076, "possibility</w>": 3077, "hears</w>": 3078, "Brighton</w>": 3079, "neglect</w>": 3080, "conclusion</w>": 3081, "wer</w>": 3082, "hither</w>": 3083, "strike</w>": 3084, "junction</w>": 3085, "niz": 3086, "stationed</w>": 3087, "law</w>": 3088, "ering</w>": 3089, "tal</w>": 3090, "misunderstand</w>": 3091, "actually</w>": 3092, "discharge</w>": 3093, "cluster</w>": 3094, "haz": 3095, "blush</w>": 3096, "around</w>": 3097, "assertions</w>": 3098, "imitations</w>": 3099, "feel</w>": 3100, "on_</w>": 3101, "told</w>": 3102, "adi": 3103, "dictates</w>": 3104, "eat</w>": 3105, "widely</w>": 3106, "eye</w>": 3107, "jo": 3108, "ow": 3109, "aboun": 3110, "lanes</w>": 3111, "cover</w>": 3112, "silly</w>": 3113, "Generous</w>": 3114, "true</w>": 3115, "Their</w>": 3116, "beautiful</w>": 3117, "different</w>": 3118, "amount</w>": 3119, "occupied</w>": 3120, "ship</w>": 3121, "affability</w>": 3122, "begin": 3123, "ags</w>": 3124, "belief</w>": 3125, "father</w>": 3126, "utter</w>": 3127, "woun": 3128, "conscience</w>": 3129, "impre": 3130, "bre": 3131, "philosophi": 3132, "retail</w>": 3133, "domestic</w>": 3134, "quitted</w>": 3135, "confidenti": 3136, "parentâ</w>": 3137, "union</w>": 3138, "requesting</w>": 3139, "ben": 3140, "assent</w>": 3141, "applied</w>": 3142, "elevated</w>": 3143, "dress</w>": 3144, "character</w>": 3145, "augh": 3146, "appearance</w>": 3147, "bow": 3148, "delight</w>": 3149, "cali": 3150, "contrivance</w>": 3151, "sting</w>": 3152, "reserves</w>": 3153, "inheriting</w>": 3154, "gements</w>": 3155, "Janeâ</w>": 3156, "part</w>": 3157, "1": 3158, "_insist_</w>": 3159, "flattering</w>": 3160, "sters</w>": 3161, "quen": 3162, "wel</w>": 3163, "inattention</w>": 3164, "admitted</w>": 3165, "street</w>": 3166, "authoritative</w>": 3167, "At</w>": 3168, "come": 3169, "We</w>": 3170, "oul": 3171, "shop": 3172, "begun</w>": 3173, "beli": 3174, "vigorously</w>": 3175, "destined</w>": 3176, "reconciliation</w>": 3177, "equi": 3178, "probity</w>": 3179, "escape</w>": 3180, "light</w>": 3181, "influ": 3182, "quette</w>": 3183, "surprise</w>": 3184, "absolutely</w>": 3185, "ruin</w>": 3186, "former": 3187, "intrude</w>": 3188, "think</w>": 3189, "athering</w>": 3190, "rob</w>": 3191, "hal": 3192, "gard</w>": 3193, "on</w>": 3194, "On</w>": 3195, "strong</w>": 3196, "imaginable</w>": 3197, "skill</w>": 3198, "habitual</w>": 3199, "pleasantly</w>": 3200, "premeditation</w>": 3201, "atened</w>": 3202, "professions</w>": 3203, "letter</w>": 3204, "sisted</w>": 3205, "dant</w>": 3206, "judge</w>": 3207, "lady</w>": 3208, "captiv": 3209, "admittance</w>": 3210, "attempted</w>": 3211, "ameless</w>": 3212, "can</w>": 3213, "graciousness</w>": 3214, "obsequi": 3215, "ckedness</w>": 3216, "says</w>": 3217, "laughter</w>": 3218, "affirmative</w>": 3219, "reverting</w>": 3220, "avering</w>": 3221, "nourishes</w>": 3222, "finished</w>": 3223, "posse": 3224, "stoutly</w>": 3225, "dreadful</w>": 3226, "livings</w>": 3227, "Why</w>": 3228, "then</w>": 3229, "aker</w>": 3230, "apologies</w>": 3231, "C": 3232, "actual</w>": 3233, "assertion</w>": 3234, "purposely</w>": 3235, "afraid</w>": 3236, "asked</w>": 3237, "az": 3238, "times</w>": 3239, "worth</w>": 3240, "line</w>": 3241, "chin</w>": 3242, "quiet</w>": 3243, "painful</w>": 3244, "creatures</w>": 3245, "contrast</w>": 3246, "shrubbery</w>": 3247, "ad</w>": 3248, "cordial</w>": 3249, "con": 3250, "Undoubtedly</w>": 3251, "fatigue</w>": 3252, "dark</w>": 3253, "misleading</w>": 3254, "suspec": 3255, "decline</w>": 3256, "berant</w>": 3257, "meditations</w>": 3258, "recre": 3259, "Bingleys</w>": 3260, "lasted</w>": 3261, "companied</w>": 3262, "pleasantness</w>": 3263, "han": 3264, "exhibition</w>": 3265, "regularity</w>": 3266, "November</w>": 3267, "manent</w>": 3268, "quar": 3269, "_tal": 3270, "meditate</w>": 3271, "besides</w>": 3272, "letting</w>": 3273, "mantel</w>": 3274, "mutually</w>": 3275, "confused</w>": 3276, "obligingly</w>": 3277, "hings</w>": 3278, "evils</w>": 3279, "emphasis</w>": 3280, "assuring</w>": 3281, "whi": 3282, "practises</w>": 3283, "neg": 3284, "fli": 3285, "and</w>": 3286, "manner</w>": 3287, "pre": 3288, "within</w>": 3289, "persons</w>": 3290, "difficult</w>": 3291, "meanly</w>": 3292, "discreditable</w>": 3293, "renewing</w>": 3294, "recollected</w>": 3295, "nal</w>": 3296, "unite</w>": 3297, "decked</w>": 3298, "evenings</w>": 3299, "privately</w>": 3300, "gradu": 3301, "permission</w>": 3302, "several</w>": 3303, "wears</w>": 3304, "obtain</w>": 3305, "ters</w>": 3306, "drawing</w>": 3307, "selec": 3308, "confinement</w>": 3309, "disengaged</w>": 3310, "walk</w>": 3311, "ying</w>": 3312, "tea</w>": 3313, "fatherâ</w>": 3314, "correct</w>": 3315, "ssive</w>": 3316, "page</w>": 3317, "All</w>": 3318, "table</w>": 3319, "relations</w>": 3320, "dwelt</w>": 3321, "sensibility</w>": 3322, "dissol": 3323, "restored</w>": 3324, "super</w>": 3325, "dless</w>": 3326, "exposing</w>": 3327, "back</w>": 3328, "presently</w>": 3329, "vices</w>": 3330, "your</w>": 3331, "charac": 3332, "yish</w>": 3333, "another</w>": 3334, "offensive</w>": 3335, "hausti": 3336, "frankness</w>": 3337, "intru": 3338, "cr": 3339, "doubts</w>": 3340, "morrow</w>": 3341, "assume</w>": 3342, "fearing</w>": 3343, "stupider</w>": 3344, "broken</w>": 3345, "nitu": 3346, "converse</w>": 3347, "fru": 3348, "deliberation</w>": 3349, "asperate</w>": 3350, "invari": 3351, "ceremony</w>": 3352, "quarter</w>": 3353, "inconce": 3354, "refer": 3355, "willed</w>": 3356, "Lady</w>": 3357, "spaper</w>": 3358, "impo": 3359, "tenants</w>": 3360, "aste</w>": 3361, "rewarded</w>": 3362, "lear": 3363, "aments</w>": 3364, "tures</w>": 3365, "bear</w>": 3366, "sol": 3367, "pleases</w>": 3368, "feâ</w>": 3369, "sake</w>": 3370, "pigs</w>": 3371, "pleasures</w>": 3372, "char": 3373, "indo": 3374, "commission</w>": 3375, "tuniti": 3376, "dinner</w>": 3377, "s_</w>": 3378, "ancy</w>": 3379, "cation</w>": 3380, "quitous</w>": 3381, "an</w>": 3382, "Not</w>": 3383, "servant</w>": 3384, "NIND</w>": 3385, "matrimoni": 3386, "fish</w>": 3387, "lustre</w>": 3388, "at_</w>": 3389, "tair": 3390, "reception</w>": 3391, "completely</w>": 3392, "book</w>": 3393, "whist</w>": 3394, "abi": 3395, "impartiality</w>": 3396, "paler</w>": 3397, "retali": 3398, "hope</w>": 3399, "trav": 3400, "ad": 3401, "is</w>": 3402, "shortly</w>": 3403, "perceived</w>": 3404, "complimented</w>": 3405, "illiterate</w>": 3406, "thing": 3407, "vent</w>": 3408, "behalf</w>": 3409, "wise</w>": 3410, "er</w>": 3411, "sâ</w>": 3412, "allusion</w>": 3413, "invent</w>": 3414, "ls</w>": 3415, "formers</w>": 3416, "_them_</w>": 3417,
[...]
